/* Copyright 2018 The TensorFlow Authors. All Rights Reserved.

Licensed under the Apache License, Version 2.0 (the "License");
you may not use this file except in compliance with the License.
You may obtain a copy of the License at

    http://www.apache.org/licenses/LICENSE-2.0

Unless required by applicable law or agreed to in writing, software
distributed under the License is distributed on an "AS IS" BASIS,
WITHOUT WARRANTIES OR CONDITIONS OF ANY KIND, either express or implied.
See the License for the specific language governing permissions and
limitations under the License.
==============================================================================*/

// Automatically created from a TensorFlow Lite flatbuffer using the command:
// xxd -i tiny_conv.tflite > tiny_conv_simple_features_model_data.cc
// See the README for a full description of the creation process.

#include "tensorflow/lite/experimental/micro/examples/micro_speech/micro_features/tiny_conv_micro_features_model_data.h"

// We need to keep the data array aligned on some architectures.
#ifdef __has_attribute
#define HAVE_ATTRIBUTE(x) __has_attribute(x)
#else
#define HAVE_ATTRIBUTE(x) 0
#endif
#if HAVE_ATTRIBUTE(aligned) || (defined(__GNUC__) && !defined(__clang__))
#define DATA_ALIGN_ATTRIBUTE __attribute__((aligned(4)))
#else
#define DATA_ALIGN_ATTRIBUTE
#endif

const unsigned char
    g_tiny_conv_micro_features_model_data[] DATA_ALIGN_ATTRIBUTE = {
        0x1c, 0x00, 0x00, 0x00, 0x54, 0x46, 0x4c, 0x33, 0x00, 0x00, 0x00, 0x00,
        0x00, 0x00, 0x0e, 0x00, 0x18, 0x00, 0x04, 0x00, 0x08, 0x00, 0x0c, 0x00,
        0x10, 0x00, 0x14, 0x00, 0x0e, 0x00, 0x00, 0x00, 0x03, 0x00, 0x00, 0x00,
        0xf8, 0x15, 0x05, 0x00, 0x44, 0xfd, 0x04, 0x00, 0x2c, 0xfd, 0x04, 0x00,
        0x04, 0x00, 0x00, 0x00, 0x39, 0x00, 0x00, 0x00, 0x1c, 0xfd, 0x04, 0x00,
        0x00, 0xfd, 0x04, 0x00, 0xe0, 0xfc, 0x04, 0x00, 0xc0, 0xfc, 0x04, 0x00,
        0xa8, 0xfc, 0x04, 0x00, 0x88, 0xec, 0x04, 0x00, 0x78, 0xeb, 0x03, 0x00,
        0x68, 0xea, 0x03, 0x00, 0x58, 0xaa, 0x03, 0x00, 0x48, 0xa6, 0x03, 0x00,
        0x38, 0xa6, 0x00, 0x00, 0x28, 0xa2, 0x00, 0x00, 0x18, 0x96, 0x00, 0x00,
        0x88, 0x95, 0x00, 0x00, 0x78, 0x89, 0x00, 0x00, 0x68, 0x7d, 0x00, 0x00,
        0x58, 0x77, 0x00, 0x00, 0x48, 0x6e, 0x00, 0x00, 0x40, 0x6e, 0x00, 0x00,
        0xb0, 0x6d, 0x00, 0x00, 0x60, 0x6b, 0x00, 0x00, 0x40, 0x6b, 0x00, 0x00,
        0x38, 0x6b, 0x00, 0x00, 0x30, 0x6b, 0x00, 0x00, 0x28, 0x6b, 0x00, 0x00,
        0x20, 0x6b, 0x00, 0x00, 0x18, 0x6b, 0x00, 0x00, 0x10, 0x6b, 0x00, 0x00,
        0x08, 0x6b, 0x00, 0x00, 0x00, 0x6b, 0x00, 0x00, 0xf8, 0x6a, 0x00, 0x00,
        0xd8, 0x6a, 0x00, 0x00, 0xd0, 0x6a, 0x00, 0x00, 0x40, 0x6a, 0x00, 0x00,
        0x38, 0x6a, 0x00, 0x00, 0x30, 0x6a, 0x00, 0x00, 0x28, 0x6a, 0x00, 0x00,
        0x20, 0x6a, 0x00, 0x00, 0xd0, 0x69, 0x00, 0x00, 0xc8, 0x69, 0x00, 0x00,
        0x38, 0x69, 0x00, 0x00, 0x30, 0x69, 0x00, 0x00, 0x28, 0x69, 0x00, 0x00,
        0x08, 0x69, 0x00, 0x00, 0x00, 0x69, 0x00, 0x00, 0xf8, 0x68, 0x00, 0x00,
        0xd8, 0x68, 0x00, 0x00, 0xd0, 0x68, 0x00, 0x00, 0xbc, 0x68, 0x00, 0x00,
        0xb4, 0x68, 0x00, 0x00, 0x64, 0x68, 0x00, 0x00, 0x5c, 0x68, 0x00, 0x00,
        0x3c, 0x68, 0x00, 0x00, 0x24, 0x60, 0x00, 0x00, 0x14, 0x00, 0x00, 0x00,
        0x0c, 0x00, 0x00, 0x00, 0x04, 0x00, 0x00, 0x00, 0x2c, 0xeb, 0xfa, 0xff,
        0x30, 0xeb, 0xfa, 0xff, 0x16, 0xfd, 0xfa, 0xff, 0x04, 0x00, 0x00, 0x00,
        0x00, 0x60, 0x00, 0x00, 0x07, 0xe5, 0x0f, 0x02, 0xec, 0x1a, 0xfa, 0x27,
        0x14, 0x0c, 0x0d, 0xeb, 0xf4, 0xf7, 0x13, 0x16, 0xf4, 0xf3, 0x0a, 0x0c,
        0xf8, 0x0f, 0x09, 0xff, 0x0a, 0x12, 0xf6, 0x03, 0x2b, 0xf9, 0xdb, 0x0b,
        0x0a, 0x05, 0x0a, 0x25, 0x00, 0x07, 0xd8, 0x04, 0x08, 0xf0, 0x13, 0x06,
        0xee, 0xe6, 0x15, 0xfa, 0xf6, 0xf7, 0x14, 0xf3, 0xee, 0x20, 0xf3, 0xdf,
        0x03, 0xfe, 0xf1, 0xfa, 0x2a, 0xff, 0xf4, 0x08, 0xcc, 0xf9, 0xfe, 0x03,
        0xed, 0xfc, 0xe0, 0xb2, 0x0b, 0xd0, 0x01, 0x03, 0x03, 0xe9, 0xee, 0x03,
        0xfc, 0xe5, 0x03, 0xb6, 0xfa, 0xf5, 0xec, 0xd3, 0xfe, 0x01, 0xf6, 0x0c,
        0x0d, 0xcf, 0xf5, 0x0b, 0xf3, 0xfb, 0x07, 0xd1, 0xef, 0xe6, 0xdd, 0xbf,
        0xd5, 0xf3, 0xce, 0xcd, 0xec, 0xe6, 0x12, 0xed, 0x10, 0xdd, 0xed, 0xff,
        0x11, 0xd0, 0x0f, 0xd3, 0xfd, 0xd9, 0x03, 0xdf, 0xff, 0xe3, 0x06, 0xde,
        0xf4, 0x0b, 0x1b, 0x02, 0xfd, 0xf5, 0xe8, 0xe1, 0xfd, 0x0f, 0xfc, 0xf3,
        0xeb, 0xf3, 0xfa, 0x00, 0xf5, 0x07, 0x0f, 0x1a, 0x10, 0x03, 0xf2, 0xf6,
        0xf1, 0xdb, 0xe8, 0x01, 0x14, 0x21, 0x20, 0xf1, 0xea, 0xf8, 0xe2, 0x15,
        0xea, 0xe6, 0xe8, 0xe2, 0x1e, 0xfd, 0x12, 0xc0, 0x12, 0xf1, 0xe4, 0x19,
        0xf1, 0xe7, 0xe8, 0xe1, 0xb6, 0x09, 0xf7, 0xf1, 0xf0, 0x0c, 0x0b, 0x0e,
        0x10, 0xe9, 0x08, 0xf6, 0xfc, 0x22, 0xed, 0xe4, 0xf9, 0xf1, 0xf6, 0xd5,
        0xe8, 0xdb, 0xd8, 0xf7, 0xea, 0x11, 0x2e, 0x0b, 0x20, 0xf5, 0xe3, 0x10,
        0xfe, 0xe5, 0xef, 0xe8, 0xe8, 0xdf, 0x08, 0xe6, 0xfb, 0x24, 0xfa, 0xf3,
        0xf4, 0xe6, 0x07, 0xfc, 0xfa, 0xf9, 0xf2, 0x03, 0x06, 0xf1, 0x06, 0xfa,
        0xfb, 0x05, 0x0d, 0x09, 0xfa, 0xff, 0xf4, 0x14, 0xf8, 0xf2, 0x05, 0xf8,
        0x06, 0xf4, 0xf9, 0xfd, 0x12, 0xfa, 0x15, 0xe8, 0xea, 0xef, 0x06, 0xee,
        0xeb, 0x04, 0xda, 0xfb, 0x06, 0xfc, 0xe3, 0x01, 0xf4, 0x13, 0x10, 0xfb,
        0x01, 0xd9, 0xf9, 0x12, 0xfe, 0x01, 0x20, 0xdf, 0x0e, 0xf7, 0xf0, 0xf5,
        0x09, 0xec, 0x14, 0x0c, 0x0f, 0x12, 0xe7, 0xd4, 0x0e, 0xe1, 0xe9, 0xed,
        0xe7, 0x09, 0xe9, 0xfa, 0xd9, 0xeb, 0x0c, 0xf2, 0x06, 0x03, 0x0a, 0x17,
        0x00, 0xd3, 0xfd, 0xdf, 0xec, 0x07, 0xd9, 0x02, 0xff, 0xf0, 0x08, 0xee,
        0x0b, 0xfa, 0xd2, 0xf2, 0x06, 0x0d, 0xe0, 0xf8, 0x02, 0xfc, 0xf2, 0x0d,
        0xca, 0xc3, 0xf9, 0xf4, 0x12, 0x12, 0xdf, 0x00, 0xf2, 0x1f, 0x02, 0xd2,
        0xf2, 0xbd, 0xfd, 0xf8, 0x00, 0xe0, 0xe9, 0xf3, 0xf9, 0xf2, 0xec, 0x0a,
        0xe5, 0xf3, 0x0f, 0xef, 0xf5, 0xff, 0x15, 0x32, 0xfa, 0xf5, 0xf4, 0xef,
        0xeb, 0x0a, 0x01, 0x00, 0x02, 0x1a, 0x25, 0xc1, 0xf6, 0x00, 0x1c, 0xf0,
        0x0f, 0x16, 0xe7, 0x10, 0xe9, 0x03, 0xf5, 0xf8, 0x0a, 0x16, 0x03, 0xfa,
        0x05, 0x03, 0x0d, 0xf7, 0xf3, 0xf6, 0xf8, 0xf1, 0x13, 0xfa, 0xf1, 0xfb,
        0xff, 0xe5, 0x02, 0x02, 0xee, 0xf2, 0xf4, 0xf4, 0x0b, 0xf9, 0x06, 0x17,
        0xf6, 0xfd, 0xee, 0xf5, 0xf4, 0xf2, 0xf8, 0xf5, 0x09, 0x19, 0x09, 0xeb,
        0xf3, 0x0a, 0xfc, 0xfa, 0x03, 0xef, 0xf7, 0xe1, 0xee, 0x01, 0xfe, 0xfa,
        0xf8, 0xf4, 0xe2, 0xf6, 0xe9, 0xf9, 0x1c, 0x0d, 0xf4, 0xec, 0x00, 0xf5,
        0xfe, 0x04, 0xf4, 0x06, 0xfb, 0x0a, 0x11, 0xfd, 0xea, 0xf6, 0x10, 0x01,
        0x00, 0xf1, 0xf8, 0xe8, 0x03, 0x00, 0x0f, 0x11, 0xef, 0xf3, 0xfd, 0xfa,
        0xf2, 0xf6, 0x1d, 0x07, 0xd7, 0x02, 0xff, 0x08, 0x06, 0x00, 0x10, 0xf7,
        0xf1, 0xc1, 0xfb, 0xf3, 0xd4, 0x0c, 0x09, 0x07, 0xf6, 0x04, 0x02, 0xfb,
        0xf7, 0x3f, 0xf9, 0x04, 0xbf, 0xd7, 0x37, 0x0b, 0x24, 0x12, 0xff, 0x07,
        0xf8, 0x18, 0xf5, 0x03, 0x0d, 0x15, 0x0c, 0xd7, 0x12, 0x12, 0x10, 0xfc,
        0xe9, 0x10, 0x16, 0xfd, 0x04, 0xed, 0x0d, 0xe8, 0x10, 0x17, 0xf2, 0x26,
        0xfa, 0xf9, 0xfe, 0x06, 0x18, 0x30, 0xd5, 0x1c, 0x00, 0x06, 0xe4, 0xfe,
        0xfb, 0x05, 0xd7, 0x02, 0xff, 0x27, 0x08, 0xe4, 0x18, 0xe6, 0xfa, 0xe6,
        0xe6, 0xd8, 0xd3, 0xf6, 0xed, 0x07, 0xcd, 0xe2, 0x0f, 0x0f, 0xd5, 0xf1,
        0xf4, 0xc6, 0xee, 0x02, 0xdc, 0x14, 0xf7, 0x00, 0xf0, 0x00, 0xfc, 0xf7,
        0xf9, 0x04, 0xed, 0xe4, 0xe3, 0xed, 0x12, 0xeb, 0x12, 0xf3, 0x0a, 0xf5,
        0x01, 0xf7, 0xe1, 0xe3, 0xf0, 0xfc, 0x0b, 0x13, 0xf9, 0xf1, 0x1f, 0xf9,
        0x03, 0x02, 0xfd, 0x06, 0xf6, 0x04, 0x00, 0xe8, 0xef, 0x05, 0x02, 0xe0,
        0xf6, 0xe9, 0xfa, 0xfd, 0x1f, 0x15, 0xf1, 0xed, 0x1b, 0x01, 0xf1, 0xfb,
        0xf9, 0xf3, 0xfc, 0xfe, 0x03, 0xf4, 0xe8, 0xec, 0xf1, 0xf8, 0xf2, 0xd9,
        0xf0, 0xf6, 0x14, 0xe4, 0x08, 0x04, 0xff, 0x02, 0x02, 0xf8, 0x0e, 0x08,
        0xfa, 0x0a, 0xff, 0xf4, 0xeb, 0xe6, 0x17, 0xfd, 0xe5, 0x01, 0x13, 0x12,
        0x17, 0xe1, 0x16, 0xfa, 0xfd, 0xe4, 0xfb, 0xf5, 0xf9, 0x12, 0xf1, 0xf5,
        0x17, 0xf3, 0x14, 0x08, 0x0f, 0x0a, 0x1a, 0x0f, 0xcf, 0x1b, 0xfa, 0xc7,
        0xed, 0xf9, 0x07, 0xfd, 0xfe, 0x0b, 0x27, 0x10, 0xfc, 0xed, 0x27, 0xef,
        0xfd, 0xff, 0x12, 0xff, 0x18, 0x14, 0x02, 0x42, 0x1e, 0xfd, 0x07, 0xea,
        0x02, 0x10, 0xfb, 0x0b, 0xe1, 0x1e, 0x10, 0x10, 0xf8, 0x1f, 0x1b, 0xf5,
        0x04, 0x00, 0x1d, 0xec, 0x1f, 0x03, 0x10, 0x1c, 0xf7, 0xfa, 0xe2, 0xef,
        0xcc, 0xeb, 0xcd, 0xe8, 0x09, 0x27, 0x01, 0xee, 0x24, 0xd2, 0x0c, 0xcb,
        0x14, 0x11, 0xb8, 0xd4, 0xed, 0xe0, 0xeb, 0xa1, 0x0d, 0x11, 0x07, 0xe6,
        0xee, 0x94, 0x42, 0x13, 0xe5, 0xfb, 0xf6, 0x02, 0xf2, 0x01, 0xfe, 0xf0,
        0xe2, 0xea, 0xfe, 0xfe, 0xe1, 0x07, 0x07, 0x15, 0xf2, 0x05, 0x02, 0xfa,
        0x0d, 0x03, 0x01, 0x0f, 0xf4, 0xdc, 0x00, 0x02, 0xfa, 0x0a, 0xe9, 0xf5,
        0xd6, 0xf2, 0x09, 0xfc, 0xea, 0xfc, 0xf7, 0xf5, 0x00, 0x05, 0x08, 0xfc,
        0xe7, 0x02, 0xe0, 0x0a, 0x0d, 0x09, 0xee, 0xe3, 0x00, 0x16, 0xfa, 0x0a,
        0xe9, 0xe3, 0x00, 0x0c, 0x02, 0xe3, 0xf3, 0x05, 0xf8, 0xe3, 0xf7, 0xe0,
        0xf1, 0xfd, 0x0c, 0x16, 0xee, 0x0f, 0xf9, 0xe8, 0x1f, 0xf2, 0x0e, 0x0d,
        0x0c, 0x03, 0xe6, 0xf2, 0x02, 0x08, 0x00, 0xe8, 0xe3, 0xed, 0x01, 0x03,
        0x01, 0xf3, 0x19, 0xf5, 0xec, 0xf6, 0xe7, 0x00, 0x01, 0xe5, 0xd1, 0x02,
        0xba, 0xeb, 0x1b, 0xea, 0xa8, 0xb4, 0xe8, 0xc0, 0xf2, 0xca, 0xe2, 0xfa,
        0x16, 0x28, 0xcd, 0xd2, 0xbd, 0xc3, 0xa4, 0xe6, 0x16, 0xc0, 0x05, 0xe9,
        0x16, 0x07, 0xe6, 0x08, 0x0a, 0xef, 0x08, 0x08, 0xe8, 0x04, 0x01, 0x04,
        0xee, 0xeb, 0x06, 0x08, 0x0b, 0xec, 0x0b, 0x06, 0x0d, 0xc3, 0x0f, 0xf5,
        0xec, 0xd3, 0xeb, 0xff, 0xde, 0xf2, 0xd6, 0x07, 0xf6, 0x0f, 0x06, 0xf7,
        0xed, 0xfc, 0xf1, 0x2d, 0x00, 0x0e, 0xf4, 0xf9, 0x13, 0xeb, 0x00, 0x04,
        0xfb, 0x19, 0x0b, 0x0c, 0xff, 0xbb, 0xf6, 0x0f, 0x0b, 0x0d, 0x06, 0x06,
        0xec, 0x0b, 0x16, 0x09, 0xe8, 0xd8, 0xe9, 0xd6, 0xd9, 0xf8, 0xf2, 0xfc,
        0x13, 0xff, 0xfe, 0x07, 0xf2, 0xf2, 0xf0, 0xe8, 0x10, 0xe2, 0xee, 0xf5,
        0xf9, 0x0a, 0xd4, 0x06, 0xfe, 0x01, 0x04, 0xef, 0x1b, 0xff, 0x01, 0x04,
        0xd0, 0xe4, 0x09, 0xeb, 0xc4, 0xef, 0xe8, 0xec, 0xf8, 0xfc, 0xd9, 0x0e,
        0x00, 0xdf, 0xc9, 0xe7, 0x0e, 0xf0, 0x09, 0xe0, 0xf6, 0xd4, 0x04, 0xee,
        0xf0, 0x06, 0xf4, 0xf4, 0xfc, 0xf8, 0xf5, 0x0a, 0xf6, 0xf4, 0x07, 0xf8,
        0xdf, 0x0c, 0xed, 0x23, 0xf7, 0x09, 0x1b, 0xf7, 0x0b, 0xfe, 0xe7, 0xcc,
        0xf8, 0xda, 0xfe, 0xf6, 0x11, 0x09, 0xdb, 0x09, 0xf9, 0x28, 0xe3, 0xe3,
        0x02, 0xd4, 0x03, 0xe5, 0x01, 0xf7, 0x10, 0xea, 0xe7, 0x03, 0x02, 0x0d,
        0x0b, 0xd0, 0xf5, 0x08, 0xf4, 0x1d, 0xf3, 0xfc, 0x0e, 0xc4, 0xfb, 0xfd,
        0x0b, 0xf8, 0xf5, 0x02, 0x18, 0xf7, 0xd3, 0x1b, 0xd9, 0xfe, 0xbf, 0x00,
        0x06, 0xb8, 0x03, 0xfa, 0x12, 0x15, 0x06, 0x06, 0xd5, 0x00, 0xbd, 0xd9,
        0xfc, 0xf2, 0xe5, 0xf9, 0x17, 0xfa, 0xfc, 0xde, 0x0c, 0xf2, 0x07, 0xfe,
        0xf2, 0xf4, 0xd9, 0xd9, 0xfe, 0xe5, 0x15, 0xeb, 0x03, 0xe1, 0xfe, 0xea,
        0xff, 0xf1, 0x12, 0xe4, 0xee, 0x06, 0xd3, 0x00, 0xf7, 0xf5, 0x03, 0x2d,
        0xf4, 0x0b, 0x0d, 0xe5, 0x10, 0x06, 0x09, 0x1f, 0x01, 0xf0, 0xfb, 0x09,
        0x11, 0xdf, 0x06, 0xda, 0xef, 0x04, 0xd6, 0xec, 0xf7, 0xe0, 0xe1, 0x0b,
        0x07, 0xcc, 0xf6, 0x12, 0xd6, 0xe4, 0x12, 0xe5, 0x05, 0xc0, 0xe1, 0x07,
        0xf3, 0xe7, 0xd2, 0xcf, 0xef, 0xd5, 0xd8, 0xe4, 0xe3, 0xfe, 0xd0, 0xe3,
        0x08, 0xf7, 0xc6, 0xe9, 0x12, 0x01, 0xd8, 0xde, 0x07, 0xf8, 0x08, 0x07,
        0xeb, 0x02, 0xf2, 0xe4, 0xeb, 0xdd, 0xea, 0xdb, 0x0b, 0x1b, 0x00, 0x07,
        0xea, 0xf7, 0xd7, 0xfc, 0x12, 0xe4, 0xd4, 0x07, 0x0b, 0xeb, 0xd7, 0x1e,
        0xf1, 0x0e, 0x10, 0xe8, 0xe1, 0x05, 0x16, 0x17, 0xf3, 0xf5, 0xf8, 0xde,
        0xf5, 0xfe, 0x14, 0xeb, 0x13, 0x19, 0x0b, 0x09, 0xde, 0xee, 0xef, 0xf7,
        0xf5, 0x19, 0xef, 0x00, 0x0c, 0x0b, 0x09, 0xfc, 0xf0, 0x0b, 0x16, 0x00,
        0xf4, 0x0b, 0x10, 0x14, 0xe9, 0x05, 0x01, 0xe7, 0x26, 0xf8, 0xed, 0x17,
        0xe5, 0x15, 0xef, 0x04, 0x00, 0x0e, 0x02, 0x02, 0x0c, 0x0f, 0x11, 0x13,
        0x00, 0x15, 0x06, 0xfe, 0xfd, 0x12, 0xfa, 0x0b, 0xf6, 0xfd, 0xfb, 0x0c,
        0xe6, 0x05, 0xe3, 0xd9, 0x0f, 0xf3, 0xdb, 0x19, 0x12, 0xf9, 0x06, 0xde,
        0x13, 0x0a, 0xfe, 0x0a, 0x05, 0xef, 0x0d, 0xfa, 0xea, 0x01, 0xe2, 0xe6,
        0xe7, 0xf2, 0xe6, 0xf0, 0xf2, 0xf0, 0xfb, 0xea, 0xd5, 0xfc, 0x07, 0xeb,
        0x09, 0xf5, 0xe7, 0x03, 0xf4, 0x06, 0xff, 0xe8, 0xf3, 0xff, 0xed, 0xeb,
        0xf5, 0xe0, 0x1d, 0xf2, 0xf9, 0x1d, 0xf4, 0xf3, 0xf7, 0xdc, 0xef, 0x11,
        0x06, 0xfa, 0xe9, 0xfb, 0xe2, 0xe5, 0x29, 0x06, 0x10, 0xee, 0xd4, 0x12,
        0x00, 0x01, 0xf5, 0xe9, 0xef, 0x06, 0xfe, 0xec, 0xfa, 0x0c, 0x10, 0x11,
        0xfa, 0x21, 0x08, 0xed, 0xfc, 0xe4, 0xe2, 0x02, 0xf5, 0xf3, 0xd3, 0xeb,
        0xef, 0xee, 0x06, 0x0d, 0x0b, 0xe8, 0xea, 0xe4, 0xec, 0x00, 0xff, 0x11,
        0xef, 0x09, 0xdb, 0xef, 0xf1, 0xfb, 0xf0, 0xfd, 0xeb, 0x03, 0x01, 0xf6,
        0xfc, 0x07, 0xe2, 0xde, 0x01, 0x0a, 0xbd, 0xef, 0xf9, 0xde, 0x04, 0xd8,
        0x2f, 0x26, 0xfb, 0x05, 0xfd, 0xd0, 0x08, 0xf9, 0x05, 0x0b, 0xfe, 0xfa,
        0xe9, 0xeb, 0xe9, 0x0e, 0x03, 0xf9, 0xf7, 0xec, 0xf3, 0xf4, 0xf3, 0xf0,
        0xdf, 0xe2, 0xf5, 0xd9, 0x0a, 0xf3, 0xf7, 0x10, 0x02, 0xfc, 0xfe, 0x01,
        0xfa, 0xfe, 0xef, 0x07, 0x01, 0xed, 0xf8, 0xfa, 0xf5, 0x06, 0xf6, 0xf3,
        0xf8, 0xf4, 0xf5, 0xf6, 0xfd, 0x00, 0xf7, 0xfc, 0xf5, 0xff, 0xe7, 0xeb,
        0xf6, 0x0b, 0xef, 0xff, 0xfc, 0xfc, 0xed, 0xff, 0xf5, 0xdb, 0xfe, 0xf4,
        0xed, 0xf8, 0xed, 0xf7, 0xef, 0xf9, 0xf5, 0xf2, 0xf5, 0xf5, 0xf8, 0xff,
        0xff, 0x05, 0x01, 0xf7, 0x01, 0xef, 0xf3, 0xf6, 0xf6, 0x01, 0xf7, 0x08,
        0x06, 0xf8, 0xf4, 0xfa, 0xf7, 0xf3, 0xf7, 0xfc, 0xf0, 0xf8, 0xfe, 0xf6,
        0xdc, 0x07, 0xf3, 0xf7, 0xd1, 0xff, 0xe5, 0xff, 0x10, 0xe0, 0x00, 0xe4,
        0xf2, 0x03, 0xf2, 0xd9, 0xfb, 0xfe, 0xf5, 0x01, 0x08, 0xef, 0x18, 0xfa,
        0xd0, 0x21, 0xdd, 0xd7, 0xe4, 0xe5, 0x01, 0x19, 0x11, 0x10, 0x12, 0x0b,
        0x0a, 0xf8, 0xd9, 0x0a, 0xe3, 0xce, 0xee, 0xee, 0x00, 0x05, 0xdd, 0xeb,
        0x0f, 0xf8, 0x0a, 0xea, 0x04, 0xed, 0xd4, 0xf5, 0xd3, 0x21, 0xee, 0xf0,
        0xe0, 0xf7, 0xd4, 0xf8, 0xe9, 0xea, 0xf1, 0xfc, 0x03, 0xfe, 0xe8, 0xf1,
        0x05, 0x0c, 0x09, 0xdf, 0xf9, 0xf0, 0x16, 0xd1, 0xf7, 0x04, 0x1e, 0xfd,
        0x28, 0x22, 0xd7, 0x06, 0xfa, 0xf6, 0xff, 0xff, 0xe8, 0xed, 0x04, 0xcf,
        0xec, 0x0a, 0x3a, 0x00, 0xf9, 0xfe, 0xfa, 0xf7, 0xe7, 0xf2, 0xf9, 0xfd,
        0xfc, 0x05, 0xfb, 0x02, 0x07, 0xfe, 0xf8, 0xf8, 0x02, 0xfb, 0xff, 0xf0,
        0xf5, 0xf9, 0xf4, 0xf3, 0xfc, 0xe4, 0xf4, 0xfc, 0x07, 0x01, 0xfa, 0xf8,
        0xfa, 0xf9, 0x02, 0xfc, 0xee, 0xf5, 0xf3, 0xf9, 0xf2, 0xf4, 0xff, 0x03,
        0xf9, 0x03, 0xf9, 0xf2, 0xee, 0x07, 0xf6, 0xf2, 0xfd, 0x07, 0xf7, 0xe9,
        0x03, 0xfe, 0xf8, 0xf0, 0x01, 0xed, 0xfd, 0x04, 0xfd, 0xfb, 0xf7, 0xf8,
        0xfa, 0xfb, 0x00, 0xf5, 0xf1, 0x04, 0xf9, 0x05, 0x03, 0xf2, 0xfa, 0x06,
        0x00, 0xff, 0x04, 0xf3, 0xfb, 0x02, 0x04, 0x01, 0xf6, 0xf2, 0xfe, 0xfa,
        0xfc, 0xfe, 0xfe, 0xfc, 0xe5, 0x0e, 0xe6, 0xe2, 0xd2, 0xca, 0xbd, 0xeb,
        0x0d, 0x00, 0xcf, 0xf2, 0xf5, 0xe3, 0x07, 0xe5, 0x0e, 0xde, 0xd8, 0xfa,
        0xed, 0xd7, 0xf1, 0xce, 0xf2, 0xdf, 0xdd, 0xe9, 0xed, 0x00, 0xf1, 0x06,
        0x06, 0xd2, 0x06, 0xff, 0xec, 0xdb, 0xf8, 0xf3, 0x0d, 0xd7, 0x0b, 0xff,
        0xf3, 0x0a, 0x01, 0x03, 0x03, 0x0f, 0xde, 0xe2, 0xd7, 0x27, 0xec, 0x13,
        0xf6, 0x04, 0xf9, 0xf6, 0x1a, 0x06, 0x21, 0x0d, 0xf2, 0xe8, 0xf7, 0x00,
        0x03, 0xfd, 0x10, 0xec, 0xe7, 0x0f, 0xe7, 0xe7, 0xfb, 0x1b, 0xdf, 0x1e,
        0xf4, 0xf7, 0xf5, 0xf6, 0xd7, 0x24, 0x0a, 0x0b, 0xef, 0xf6, 0x14, 0xf9,
        0x07, 0x22, 0x41, 0x0e, 0xe6, 0x06, 0xe2, 0xfb, 0x00, 0x19, 0xea, 0xe7,
        0xfe, 0x01, 0xf9, 0xf3, 0xf6, 0x05, 0xfe, 0x11, 0x18, 0x08, 0xf0, 0xfc,
        0xfd, 0x28, 0x07, 0xe6, 0x06, 0xf2, 0x09, 0xf2, 0x10, 0xe4, 0xea, 0xfc,
        0xec, 0x21, 0xdf, 0xf3, 0xe6, 0xf2, 0xdc, 0xde, 0x12, 0xff, 0x10, 0x01,
        0xe4, 0x0b, 0x04, 0xee, 0x2a, 0x06, 0xe4, 0xf2, 0xde, 0x2c, 0x0d, 0xd6,
        0xe0, 0xf0, 0xfa, 0xfb, 0x09, 0xf3, 0x14, 0x08, 0xf7, 0x06, 0xe6, 0xe2,
        0x00, 0xe8, 0x07, 0xf7, 0xf8, 0x0b, 0xec, 0xf2, 0x04, 0x0d, 0xed, 0xf3,
        0x27, 0x06, 0xee, 0x00, 0xdd, 0xf8, 0x03, 0xe0, 0xd5, 0xe5, 0x1e, 0xdd,
        0xff, 0xdc, 0x1b, 0xf1, 0xf6, 0xf0, 0xed, 0xf4, 0xff, 0x03, 0xf9, 0xe6,
        0xf5, 0x0d, 0x0f, 0xfb, 0xe9, 0x0a, 0x23, 0xe7, 0x17, 0x03, 0xcf, 0xeb,
        0xe5, 0xf8, 0xe8, 0xf2, 0xf9, 0xfd, 0xed, 0xee, 0x0b, 0xff, 0xf5, 0x0f,
        0xea, 0xe5, 0xe4, 0xdd, 0xfb, 0x06, 0xef, 0xe8, 0xf7, 0xf1, 0x05, 0xf5,
        0xde, 0x11, 0x04, 0xee, 0x15, 0x05, 0xda, 0xe8, 0xd8, 0xff, 0xf6, 0xea,
        0x0a, 0x06, 0xee, 0xeb, 0x0e, 0xf1, 0x1d, 0xf0, 0xe7, 0xfd, 0xee, 0xeb,
        0xe4, 0x0e, 0xfa, 0xf6, 0xed, 0xf2, 0x00, 0xf5, 0x03, 0x06, 0x17, 0xea,
        0x0b, 0x0b, 0xf0, 0xe1, 0xe9, 0xf4, 0xf5, 0xe7, 0xe8, 0x06, 0x01, 0xfe,
        0xf0, 0xf5, 0x10, 0xf3, 0x02, 0xfb, 0xe6, 0xdf, 0xfa, 0xf3, 0xf5, 0xf6,
        0xed, 0x1d, 0x04, 0x0d, 0xee, 0x06, 0x18, 0x07, 0x1a, 0xf7, 0xf0, 0x01,
        0xfd, 0x0a, 0x22, 0x00, 0xe6, 0xf0, 0x01, 0x0d, 0xed, 0xe9, 0xde, 0x0e,
        0x07, 0xf0, 0xef, 0xf1, 0xf4, 0xf4, 0xe4, 0xe5, 0xf0, 0x02, 0xf9, 0xeb,
        0xe9, 0x0b, 0x0a, 0xf3, 0xfe, 0xe6, 0x04, 0x00, 0xea, 0x06, 0xf4, 0xf1,
        0xdc, 0xf7, 0x0a, 0xfd, 0xf4, 0xf8, 0xeb, 0x01, 0x0c, 0xf4, 0xea, 0xeb,
        0xfe, 0xee, 0xe3, 0xff, 0xfb, 0x0d, 0xf4, 0xef, 0x09, 0xf4, 0x00, 0xe9,
        0xf9, 0xff, 0x00, 0xff, 0xe2, 0x0e, 0x06, 0xfc, 0xf0, 0xfe, 0xff, 0xf4,
        0xed, 0xfb, 0xf5, 0xf7, 0x0b, 0x12, 0xea, 0xe4, 0x0b, 0xe1, 0xfd, 0xed,
        0xc9, 0x04, 0xd4, 0xe2, 0xfb, 0xf1, 0x15, 0xf7, 0x12, 0xe1, 0xeb, 0x1a,
        0xd5, 0xd7, 0xf5, 0xe9, 0xec, 0xf8, 0xeb, 0xd0, 0xfa, 0xfa, 0xec, 0xee,
        0x01, 0xf9, 0xf2, 0x00, 0x0f, 0xfa, 0xf1, 0x10, 0xe0, 0xf7, 0xd1, 0xf1,
        0xeb, 0xfb, 0xf4, 0x07, 0x0c, 0x18, 0xfc, 0x10, 0xfc, 0x07, 0xf0, 0x02,
        0xfb, 0x0a, 0xf1, 0xd9, 0x18, 0xf4, 0x08, 0xcc, 0xe1, 0xe4, 0x13, 0x02,
        0xff, 0xdc, 0x11, 0x0c, 0xee, 0xfe, 0x02, 0xe3, 0x10, 0xe2, 0xe3, 0x08,
        0xea, 0x1a, 0xeb, 0x09, 0xef, 0x08, 0xfb, 0xd9, 0xf8, 0xec, 0x07, 0xf4,
        0x01, 0xe8, 0x10, 0x08, 0xff, 0x0a, 0x07, 0xed, 0xfa, 0xf9, 0xfb, 0x04,
        0x07, 0x08, 0xf2, 0x10, 0xed, 0x1e, 0xd4, 0x10, 0xeb, 0xf5, 0xef, 0x00,
        0x09, 0x20, 0x1d, 0xe4, 0xfc, 0xe8, 0xe6, 0x0c, 0x21, 0xe9, 0x0f, 0xfb,
        0xfc, 0xf8, 0xdb, 0xf2, 0xfa, 0x0a, 0xe2, 0xf2, 0x0d, 0x08, 0x06, 0x01,
        0xe5, 0x10, 0x1c, 0xe5, 0xf9, 0xda, 0xea, 0xf9, 0xf8, 0x08, 0xef, 0xd9,
        0xe7, 0xfb, 0xdf, 0x18, 0x0a, 0xf1, 0xf4, 0x0d, 0xf9, 0xec, 0x08, 0xea,
        0xf3, 0xf2, 0xfd, 0x01, 0xf6, 0xe9, 0xd5, 0xf5, 0xea, 0x0d, 0x01, 0x0a,
        0xfc, 0x13, 0x07, 0x11, 0xe6, 0x0c, 0x02, 0xeb, 0xfd, 0xe3, 0x0c, 0xfe,
        0xef, 0xe5, 0x10, 0xe2, 0xfe, 0x04, 0x02, 0x17, 0x01, 0x13, 0xf7, 0xea,
        0x1c, 0xe2, 0x17, 0x09, 0xf4, 0xda, 0xe3, 0x0f, 0xf0, 0x05, 0x1b, 0xe1,
        0x04, 0x14, 0x0a, 0xff, 0xfe, 0x06, 0x0f, 0xe1, 0x1e, 0xe9, 0xf9, 0xe8,
        0xda, 0xee, 0xb8, 0xfd, 0xd9, 0xdf, 0xd4, 0xc9, 0x0d, 0x10, 0xe6, 0xde,
        0x20, 0xe6, 0xd3, 0xef, 0xd9, 0x14, 0xec, 0xb8, 0xcd, 0xe2, 0x04, 0xe9,
        0x12, 0x0c, 0x0a, 0xe2, 0x04, 0x23, 0x1a, 0x30, 0xe5, 0x14, 0xff, 0xfd,
        0xf8, 0x0d, 0xfd, 0x19, 0xef, 0x02, 0x09, 0xf3, 0x03, 0x04, 0xff, 0x01,
        0xf7, 0xf8, 0xda, 0x0d, 0xf6, 0x0f, 0x06, 0xfa, 0x19, 0xfc, 0x1b, 0xfc,
        0x25, 0x2d, 0xfd, 0x13, 0x04, 0x10, 0xe1, 0xff, 0xf2, 0xf1, 0xe6, 0x04,
        0x03, 0xf8, 0x0e, 0xf3, 0xf3, 0xe1, 0x0f, 0xd8, 0xfa, 0x0c, 0x05, 0xeb,
        0xea, 0xfe, 0xb3, 0xeb, 0xda, 0xf0, 0x0f, 0xe8, 0xd3, 0x0a, 0xe5, 0x02,
        0xf7, 0xd5, 0xf2, 0xeb, 0xf9, 0xfc, 0xd7, 0xef, 0xfc, 0xf6, 0x06, 0x04,
        0xdc, 0xeb, 0xfc, 0xf2, 0xf6, 0xf1, 0x04, 0xd1, 0xfb, 0x1a, 0xd2, 0xde,
        0xee, 0xe2, 0x01, 0x02, 0xff, 0xf6, 0xdb, 0xee, 0xf4, 0x10, 0x01, 0x0d,
        0xfc, 0xf1, 0xd9, 0xff, 0xde, 0xdc, 0x04, 0x2f, 0xf4, 0x11, 0x08, 0xe4,
        0xec, 0xe2, 0xf9, 0xf1, 0x1d, 0xfe, 0xf0, 0x09, 0x05, 0xff, 0xfe, 0x2a,
        0x0f, 0x00, 0xc9, 0xfe, 0x02, 0x17, 0x03, 0xf0, 0x08, 0xd9, 0xf5, 0xf0,
        0xed, 0xf2, 0xfc, 0x09, 0xec, 0xf2, 0x0c, 0x08, 0x0f, 0xfc, 0x00, 0x15,
        0x01, 0x06, 0x16, 0xf9, 0x00, 0xf0, 0xf4, 0xfa, 0x00, 0xde, 0xee, 0x09,
        0xef, 0xff, 0x06, 0xe7, 0x0b, 0xd2, 0xe8, 0xf6, 0xfc, 0xf5, 0x08, 0xf9,
        0xe5, 0xe6, 0x15, 0x04, 0x0f, 0xed, 0x0a, 0x18, 0xf6, 0x06, 0x0f, 0xf2,
        0xf2, 0xf7, 0xfe, 0xe8, 0xf6, 0xf1, 0xf2, 0xfe, 0x03, 0xf7, 0xfc, 0xff,
        0x0b, 0xe5, 0xfb, 0x04, 0xee, 0xff, 0xf7, 0xf7, 0xef, 0xef, 0xfe, 0x13,
        0x09, 0xe8, 0x02, 0xf8, 0xf6, 0x0e, 0x09, 0x02, 0xef, 0xfc, 0xfe, 0xe7,
        0xf7, 0xe4, 0xfe, 0x07, 0xc2, 0x19, 0xd9, 0xe1, 0xd5, 0xeb, 0xd5, 0x09,
        0x0a, 0x07, 0x08, 0x03, 0xf6, 0xeb, 0xe3, 0x07, 0x00, 0xf7, 0xd8, 0xd4,
        0xe9, 0x07, 0xdd, 0xcb, 0xff, 0xe9, 0xdb, 0xf4, 0x06, 0xdd, 0xfa, 0x02,
        0xf9, 0xdd, 0x02, 0xfa, 0x0c, 0x09, 0xea, 0x0f, 0x04, 0xe1, 0x0a, 0x0a,
        0x19, 0x1b, 0xde, 0x0b, 0xf6, 0xfc, 0x04, 0x0d, 0x0d, 0x04, 0x02, 0x08,
        0x13, 0xfd, 0xdf, 0xf8, 0x0a, 0x0b, 0xff, 0x15, 0x10, 0x01, 0x25, 0x16,
        0x18, 0x23, 0x11, 0x1c, 0x06, 0x19, 0xf5, 0xf9, 0x05, 0xfe, 0xeb, 0xfe,
        0xfc, 0x11, 0x1c, 0x06, 0x1b, 0x01, 0x15, 0x0b, 0x1a, 0x05, 0x13, 0x01,
        0x13, 0x03, 0x1b, 0x11, 0xc5, 0xf6, 0xc9, 0xd1, 0xc2, 0xd6, 0xea, 0x3b,
        0xdd, 0x26, 0xd8, 0xe9, 0xfd, 0x06, 0x1c, 0xe5, 0xff, 0x04, 0xdd, 0x02,
        0xf6, 0xe9, 0xd6, 0xfc, 0xef, 0xe6, 0x11, 0xe4, 0x06, 0xf0, 0x09, 0xf4,
        0xd0, 0xed, 0xf1, 0xf8, 0xc0, 0xd3, 0xf3, 0x0a, 0xf0, 0x26, 0xd6, 0x17,
        0xf8, 0xf9, 0xff, 0x00, 0x08, 0x0c, 0xd6, 0xd0, 0xef, 0x0a, 0x01, 0xd5,
        0xf2, 0xe9, 0xf6, 0x0f, 0xf5, 0xf1, 0xf4, 0x0d, 0xeb, 0x12, 0xe6, 0x05,
        0x01, 0x0a, 0xf6, 0x07, 0xf3, 0x2f, 0xd8, 0xdd, 0x14, 0xd4, 0xf4, 0x01,
        0x08, 0x27, 0xfb, 0xf9, 0xde, 0xfa, 0x05, 0xf6, 0xd4, 0xba, 0x09, 0x05,
        0x03, 0x14, 0xf1, 0x0b, 0xbd, 0xe7, 0xca, 0xd9, 0xcb, 0xd7, 0xff, 0xbd,
        0xef, 0xf5, 0x02, 0x0b, 0xdd, 0x0a, 0x0d, 0xfc, 0x0d, 0xc8, 0xe2, 0xbc,
        0xf2, 0x1e, 0xf9, 0xeb, 0xc4, 0x9f, 0xed, 0xf4, 0xf5, 0xd1, 0xff, 0xf7,
        0x00, 0x08, 0xe7, 0xea, 0x0c, 0x00, 0x12, 0xe9, 0xd9, 0xde, 0x0e, 0x15,
        0xa9, 0x09, 0x17, 0xfb, 0x17, 0xf7, 0xca, 0xf7, 0x0d, 0xcc, 0xf2, 0xe2,
        0xcc, 0xbc, 0x34, 0xf1, 0xe1, 0xfa, 0xc6, 0xf2, 0x09, 0x05, 0x07, 0x0d,
        0xfb, 0xff, 0xda, 0x0e, 0x0d, 0xf9, 0xf3, 0x08, 0x07, 0xf5, 0xfa, 0x0e,
        0x15, 0xd7, 0x01, 0x05, 0x0b, 0xc6, 0xea, 0xe6, 0xf6, 0x1a, 0xef, 0xe5,
        0xff, 0x16, 0xd2, 0x04, 0xfe, 0x03, 0xf0, 0xfd, 0xfd, 0xf7, 0xfb, 0x01,
        0xf1, 0xfb, 0x06, 0x04, 0xff, 0xf3, 0x04, 0x00, 0x04, 0xf9, 0xfb, 0xf9,
        0xf2, 0xf7, 0xf3, 0xfa, 0xfb, 0xf2, 0xf3, 0xf3, 0xff, 0xfa, 0x08, 0xfc,
        0x01, 0xfd, 0x00, 0xf8, 0xfc, 0xfd, 0xfb, 0xf1, 0xf0, 0xfe, 0xf3, 0x04,
        0xf4, 0xf6, 0x00, 0xf9, 0xfa, 0xf8, 0xfa, 0x08, 0xf5, 0xff, 0xfa, 0xf8,
        0xf3, 0xff, 0xfa, 0xef, 0xf9, 0x03, 0x02, 0xf9, 0xf9, 0x00, 0x00, 0xfc,
        0xf8, 0x01, 0xf9, 0xf3, 0xf1, 0xf9, 0xfe, 0xfa, 0xfd, 0xfc, 0xf7, 0xf5,
        0xf8, 0x02, 0xf9, 0xfa, 0xf9, 0xfe, 0xf6, 0xf6, 0xfc, 0xfc, 0xfa, 0xf3,
        0x06, 0xf7, 0x06, 0xf7, 0x26, 0xd2, 0x0d, 0xff, 0x30, 0x27, 0x08, 0xe7,
        0xde, 0xd3, 0xe7, 0xed, 0x11, 0xe8, 0x01, 0xfd, 0xf2, 0xfe, 0x18, 0x1a,
        0x14, 0xa2, 0x02, 0x26, 0x0f, 0x0e, 0xf4, 0xf7, 0xe3, 0xe3, 0x09, 0xbd,
        0xfd, 0xbe, 0xf5, 0xe7, 0xf9, 0xfa, 0xeb, 0x08, 0x14, 0x2f, 0x21, 0xf2,
        0x10, 0xf8, 0xe5, 0xde, 0xfb, 0x07, 0xf3, 0x05, 0xed, 0xec, 0x04, 0xfd,
        0x0c, 0x0b, 0x04, 0xf0, 0xed, 0xd8, 0x01, 0x22, 0xed, 0x37, 0xe1, 0x0f,
        0xd9, 0xf1, 0x05, 0xfc, 0x12, 0x30, 0x0e, 0xfd, 0x14, 0xe8, 0x20, 0xe0,
        0x0c, 0x32, 0xe8, 0x07, 0xe9, 0xe9, 0x02, 0xcb, 0x07, 0x01, 0x28, 0x03,
        0x0e, 0xd8, 0x1c, 0x05, 0x02, 0x0e, 0xf6, 0xf8, 0xf2, 0xfd, 0xfa, 0xe6,
        0x03, 0xd9, 0x04, 0xfe, 0xee, 0x08, 0x02, 0xf5, 0xfb, 0xf2, 0x0c, 0xfb,
        0xf6, 0xfe, 0xfb, 0xf2, 0xf8, 0xff, 0xf9, 0xed, 0xfa, 0xf5, 0xf8, 0x02,
        0xf6, 0xfb, 0xf5, 0x01, 0xf2, 0xde, 0xec, 0xf0, 0x01, 0xfb, 0xfa, 0xe6,
        0xe4, 0x03, 0xfd, 0xff, 0x09, 0x02, 0xfe, 0xeb, 0xe0, 0x03, 0xff, 0xf5,
        0xe7, 0xf2, 0x05, 0xfd, 0xfd, 0x10, 0x00, 0xf4, 0xfb, 0xef, 0xee, 0x03,
        0xef, 0xe2, 0xf8, 0xe6, 0x01, 0xfb, 0x03, 0xfb, 0xdb, 0x05, 0xf2, 0xf5,
        0xff, 0xdc, 0xf6, 0xf3, 0xf3, 0xfe, 0xec, 0xff, 0xf1, 0xf4, 0xfb, 0x0f,
        0xf6, 0x0f, 0xfc, 0xf6, 0xf8, 0xf6, 0xfb, 0xf7, 0xef, 0xfd, 0xf9, 0xf5,
        0xff, 0xfb, 0xfe, 0xfd, 0xfe, 0x07, 0xff, 0xfa, 0x0b, 0xfc, 0xfc, 0x02,
        0x03, 0xf4, 0x00, 0xfd, 0xee, 0xf7, 0x01, 0x06, 0xfe, 0x03, 0xfe, 0xf8,
        0x00, 0xf6, 0xfd, 0xfc, 0xff, 0xf9, 0xf4, 0xfb, 0xfc, 0xfe, 0xf9, 0xf7,
        0xf8, 0x00, 0xf9, 0xf9, 0x04, 0xfe, 0x00, 0xfa, 0x01, 0xf4, 0xf6, 0x02,
        0xf8, 0xfb, 0x00, 0x04, 0xf7, 0x04, 0xfc, 0x05, 0xfa, 0xf6, 0xfe, 0xf8,
        0xfd, 0xfb, 0xfb, 0xf7, 0x01, 0x02, 0xf7, 0x04, 0xfb, 0x04, 0x02, 0xfe,
        0x0a, 0x04, 0xf2, 0xf8, 0x00, 0xfc, 0xfe, 0xfe, 0xfc, 0xf8, 0xf8, 0xff,
        0xf9, 0xfa, 0xff, 0x02, 0x01, 0xe7, 0xe3, 0x02, 0x10, 0xf0, 0x01, 0xd5,
        0x95, 0x0c, 0xcb, 0xae, 0xd8, 0xeb, 0xed, 0xe8, 0xe7, 0xf4, 0xf8, 0xfb,
        0xfe, 0xfc, 0xe1, 0x04, 0xbb, 0xdf, 0x13, 0xeb, 0xe6, 0xec, 0x0e, 0xea,
        0x0f, 0xf6, 0x02, 0xfb, 0x1a, 0x01, 0x1b, 0x28, 0xf1, 0x00, 0xcf, 0xe3,
        0x20, 0x04, 0x1e, 0x30, 0x07, 0x0e, 0x0e, 0x12, 0xee, 0xfd, 0xf8, 0x14,
        0x00, 0x03, 0x10, 0xf8, 0x0d, 0xf3, 0xec, 0xda, 0xe2, 0xf5, 0xe0, 0xdc,
        0xdc, 0x09, 0x0d, 0x1b, 0x19, 0x03, 0x16, 0x28, 0x0c, 0x07, 0x0e, 0xeb,
        0xfb, 0x01, 0xe2, 0xe8, 0xdd, 0x09, 0x20, 0xf8, 0x19, 0xff, 0xec, 0x19,
        0x09, 0xf1, 0xf3, 0xf7, 0xf7, 0xdc, 0xfe, 0x0a, 0xf3, 0x19, 0xe5, 0xe4,
        0x09, 0x0b, 0x12, 0x0c, 0x00, 0xf9, 0xf6, 0xf3, 0x0e, 0xf9, 0xd9, 0xfb,
        0xf6, 0x0d, 0x14, 0xf9, 0x02, 0x08, 0xef, 0xf7, 0x13, 0xf4, 0xf5, 0xfc,
        0xfe, 0xf9, 0xf6, 0x05, 0xec, 0xf3, 0x03, 0xbf, 0xfd, 0x12, 0xee, 0xcd,
        0xfa, 0x0b, 0x09, 0x15, 0x17, 0x07, 0xdf, 0xda, 0xde, 0x04, 0xf3, 0xe7,
        0xca, 0xec, 0xf2, 0x00, 0xeb, 0x0a, 0xf2, 0xfc, 0xf2, 0x06, 0xf5, 0xe2,
        0xe5, 0xfe, 0xf4, 0xf9, 0x20, 0xff, 0xf3, 0x08, 0xf0, 0x07, 0xf6, 0xf7,
        0x04, 0xef, 0xf4, 0xee, 0xe3, 0x06, 0x03, 0xd6, 0xff, 0xfb, 0xd2, 0xf1,
        0xe2, 0x02, 0xf7, 0x0e, 0x1a, 0xee, 0x09, 0x00, 0x1c, 0x07, 0xec, 0xe5,
        0x05, 0xea, 0xf1, 0xee, 0xf9, 0xc9, 0x04, 0xd3, 0x20, 0xc9, 0xff, 0xfd,
        0x19, 0x15, 0xdf, 0x1d, 0x01, 0x20, 0xcd, 0xf5, 0xf8, 0xcb, 0xb4, 0xe4,
        0x0e, 0xe8, 0x05, 0x13, 0x0b, 0x0b, 0xe3, 0x01, 0xf9, 0x15, 0xdf, 0xe9,
        0xe6, 0xdf, 0xef, 0xe7, 0x06, 0xdc, 0x08, 0x15, 0xf1, 0xdc, 0x02, 0xe9,
        0xfc, 0x10, 0xc2, 0xe6, 0xf0, 0xfb, 0xea, 0xe4, 0xf4, 0x0a, 0xe8, 0xfd,
        0xd4, 0xf4, 0xeb, 0x11, 0x32, 0x0d, 0xff, 0xf0, 0x2f, 0x02, 0x00, 0xe0,
        0x17, 0x23, 0xed, 0xfe, 0xee, 0xd2, 0x12, 0xd4, 0x15, 0x0b, 0x0d, 0x09,
        0xd8, 0xd8, 0x01, 0x18, 0xf4, 0xe3, 0x02, 0x23, 0xf1, 0x1d, 0x0b, 0xd6,
        0x13, 0x03, 0x13, 0x07, 0x10, 0xf9, 0xd5, 0x0e, 0xf3, 0xf5, 0x16, 0xdf,
        0x28, 0x01, 0x17, 0x04, 0x24, 0x23, 0x09, 0x2a, 0xfe, 0xf5, 0xf9, 0x1e,
        0xef, 0x0d, 0xfd, 0x07, 0xf4, 0x0a, 0x02, 0xed, 0xee, 0xf1, 0x17, 0x11,
        0x0d, 0xe4, 0xea, 0xfa, 0xfa, 0xfe, 0xed, 0xeb, 0x01, 0x25, 0x05, 0xec,
        0xf9, 0xed, 0xf5, 0x08, 0x1e, 0x09, 0x20, 0x05, 0xe9, 0xf7, 0xf4, 0xf2,
        0xf1, 0xfc, 0x1a, 0xea, 0xf3, 0xe2, 0x05, 0x0f, 0xf5, 0x0c, 0xff, 0x0e,
        0xfa, 0x1e, 0xef, 0xd1, 0x0f, 0x12, 0x1f, 0x0e, 0xec, 0xde, 0x10, 0x12,
        0x1b, 0xeb, 0x0d, 0xf9, 0x02, 0x09, 0xee, 0xfa, 0xe5, 0xcf, 0x01, 0x0c,
        0xf0, 0xf9, 0xf3, 0xec, 0xf5, 0xf4, 0xf9, 0xfb, 0xfb, 0x07, 0xf4, 0xea,
        0xed, 0x06, 0x05, 0xff, 0xfe, 0xf8, 0xfb, 0xe5, 0xe9, 0xe9, 0xe9, 0xf5,
        0xfc, 0xe3, 0xea, 0xfa, 0xf0, 0xe9, 0xf7, 0xec, 0xf0, 0x13, 0x00, 0xfd,
        0x03, 0x00, 0xfe, 0xf1, 0xfe, 0xf8, 0xf3, 0xfd, 0xd6, 0x2f, 0x0c, 0xfc,
        0xd6, 0xf0, 0x03, 0xfa, 0x02, 0xf9, 0x06, 0xf6, 0xf3, 0x06, 0xe9, 0xef,
        0xeb, 0x0f, 0xfb, 0x02, 0xf0, 0x14, 0xf7, 0xf6, 0xee, 0xef, 0x0b, 0xfd,
        0x0c, 0x00, 0xf4, 0xf2, 0xe5, 0x14, 0xf3, 0xe7, 0xe6, 0xf1, 0x06, 0xea,
        0xf4, 0xee, 0xf4, 0xed, 0x0a, 0xfc, 0xef, 0xf7, 0x10, 0xf8, 0x01, 0xf4,
        0x04, 0x09, 0x04, 0xfc, 0xd6, 0xfe, 0x24, 0x03, 0x1b, 0xd3, 0xfc, 0x03,
        0x04, 0xef, 0xf9, 0x15, 0xfa, 0xf2, 0xfe, 0x01, 0xf3, 0x10, 0xff, 0xc0,
        0x0c, 0xe1, 0xf8, 0xf0, 0x02, 0xed, 0xfe, 0xf9, 0xf7, 0x16, 0xf1, 0x15,
        0xe5, 0xe1, 0xf1, 0xe6, 0x0d, 0xe5, 0x06, 0xed, 0x0d, 0x22, 0xeb, 0x0b,
        0xf0, 0xfb, 0xd2, 0x01, 0x0b, 0xfc, 0xde, 0xf7, 0xde, 0xfd, 0xf7, 0x02,
        0xf3, 0xf2, 0xf1, 0x05, 0x04, 0xf8, 0xfd, 0x1a, 0xdd, 0xed, 0xf8, 0x16,
        0xf8, 0xed, 0xf1, 0xc7, 0x24, 0x11, 0xf5, 0xfe, 0xe8, 0x06, 0xec, 0x07,
        0xec, 0xce, 0xeb, 0xfa, 0x01, 0xeb, 0x04, 0xf0, 0xf5, 0x09, 0xff, 0xe4,
        0x0c, 0x16, 0xea, 0xe9, 0xfa, 0x10, 0x21, 0x11, 0xfa, 0xe3, 0x07, 0x14,
        0xfb, 0x0b, 0x06, 0xfd, 0x08, 0xe1, 0x16, 0x12, 0x15, 0x16, 0x13, 0x12,
        0xf9, 0xf1, 0xdb, 0xd3, 0x09, 0xe1, 0x00, 0x01, 0xe5, 0x04, 0xf3, 0xe2,
        0xe6, 0x0f, 0x1b, 0xf4, 0xff, 0xff, 0xfb, 0x0c, 0xe6, 0x01, 0xf0, 0xf1,
        0xe6, 0xe7, 0xe4, 0xdd, 0x2c, 0x00, 0x10, 0xe3, 0xed, 0xf7, 0xe3, 0xf4,
        0xfe, 0xe3, 0xe8, 0xfc, 0xda, 0xe4, 0xe8, 0xd6, 0xf4, 0x05, 0x05, 0x1b,
        0xf8, 0xed, 0xda, 0xf5, 0xdd, 0x16, 0xfc, 0xea, 0xd3, 0xe1, 0xed, 0xef,
        0x0e, 0xed, 0x01, 0xd6, 0xf9, 0x16, 0x0a, 0xf0, 0xd5, 0xd4, 0x13, 0xd6,
        0xf3, 0x07, 0x07, 0x11, 0xe7, 0x22, 0x0d, 0x14, 0xf7, 0xf6, 0x02, 0x08,
        0x0c, 0x12, 0x05, 0x12, 0xee, 0xdb, 0x07, 0x19, 0x07, 0x18, 0xe6, 0xf1,
        0xea, 0x05, 0x0a, 0xcc, 0xf3, 0xfe, 0x08, 0x00, 0xea, 0x08, 0xe8, 0x09,
        0x03, 0x11, 0x21, 0xe4, 0x09, 0xeb, 0xe0, 0x05, 0x12, 0xe5, 0x00, 0x12,
        0x05, 0xdf, 0xf6, 0x0a, 0xf4, 0xeb, 0xed, 0x03, 0xe3, 0x09, 0x01, 0xfc,
        0xf3, 0xf2, 0xfc, 0x06, 0x09, 0xcf, 0xd0, 0xf8, 0x22, 0x0c, 0xe7, 0x18,
        0xf5, 0x0d, 0xea, 0xf4, 0xff, 0xce, 0x0a, 0xfd, 0x22, 0x14, 0x05, 0x02,
        0x08, 0x0a, 0xf7, 0x07, 0x04, 0xfc, 0x02, 0xf0, 0xf3, 0xf7, 0xec, 0xe2,
        0xff, 0x00, 0x00, 0x01, 0xf4, 0xfc, 0x01, 0xfa, 0xfb, 0xf6, 0xf0, 0x02,
        0xff, 0x05, 0xf3, 0xf7, 0xfa, 0xfe, 0xf2, 0x04, 0x0c, 0x05, 0xf2, 0x01,
        0xf6, 0x03, 0xfd, 0xfe, 0xfd, 0xfa, 0xfb, 0xfe, 0xf9, 0xf8, 0x0b, 0x02,
        0xfb, 0xf5, 0xff, 0xff, 0x09, 0xed, 0x03, 0xfb, 0xf5, 0xfe, 0xf9, 0xfe,
        0xf8, 0x06, 0xfe, 0x06, 0xfc, 0xf3, 0xfe, 0xf7, 0xf3, 0xf4, 0xf7, 0xe5,
        0xfd, 0xf8, 0xf7, 0xf4, 0xf6, 0xf6, 0xf2, 0xf7, 0xf3, 0xfb, 0xfc, 0xf9,
        0x06, 0xeb, 0xf1, 0xf7, 0xed, 0xf9, 0xf3, 0xf8, 0xf4, 0xf2, 0xfa, 0xf1,
        0xf1, 0xf6, 0xf4, 0x03, 0x29, 0xd9, 0x00, 0x08, 0x10, 0x02, 0x11, 0xc1,
        0x18, 0x00, 0x09, 0x04, 0x11, 0x0c, 0x10, 0x0f, 0x09, 0x31, 0x0a, 0xff,
        0xe2, 0x21, 0x16, 0x11, 0x02, 0x14, 0x1a, 0x14, 0xec, 0x22, 0xf2, 0x02,
        0x05, 0xec, 0xf2, 0xff, 0x03, 0xde, 0xfc, 0x11, 0xe6, 0x1f, 0x0d, 0x12,
        0x0a, 0x1c, 0x12, 0xee, 0x0d, 0xfe, 0x01, 0x29, 0xed, 0x19, 0xe4, 0xe9,
        0xf6, 0xf6, 0xe9, 0xf6, 0x1a, 0x04, 0xf3, 0xf3, 0xf8, 0x11, 0xd2, 0xf3,
        0xfa, 0x0e, 0xf9, 0x17, 0x10, 0xf7, 0x0c, 0x14, 0xef, 0x09, 0x3a, 0x10,
        0x33, 0x29, 0xe2, 0x03, 0xf8, 0x05, 0x01, 0x00, 0x04, 0xfa, 0xf8, 0x2f,
        0x13, 0xfc, 0x03, 0x0c, 0x0c, 0xf1, 0xf2, 0x08, 0xf6, 0xde, 0x0b, 0x13,
        0x16, 0xf8, 0x10, 0xf9, 0x1a, 0x01, 0xe5, 0x03, 0xff, 0xe9, 0x07, 0x23,
        0xcb, 0x35, 0xf0, 0xed, 0xfb, 0x00, 0xeb, 0x04, 0x0f, 0x01, 0x14, 0x19,
        0x0c, 0x1d, 0x20, 0x06, 0xff, 0x09, 0xfd, 0x11, 0x0a, 0xef, 0xfa, 0x2d,
        0x0a, 0x0f, 0xc2, 0x18, 0x17, 0x12, 0x07, 0x20, 0x09, 0x35, 0x11, 0x06,
        0x15, 0x04, 0x19, 0x18, 0x0c, 0x06, 0x08, 0x1d, 0xdf, 0x04, 0xc5, 0xfa,
        0xe5, 0xd8, 0xf2, 0xc9, 0xd7, 0x1c, 0xe6, 0xd2, 0xef, 0xf2, 0x09, 0xe8,
        0xcd, 0x07, 0xa7, 0xcc, 0xc6, 0xee, 0xd4, 0xd5, 0xb9, 0xc7, 0x0a, 0xc0,
        0xc2, 0xe7, 0xf4, 0xe2, 0x16, 0xf0, 0xf4, 0x04, 0x0b, 0x19, 0xe2, 0xe8,
        0x03, 0x16, 0xfd, 0x09, 0x1b, 0x04, 0xfd, 0xec, 0xe3, 0xe8, 0xf6, 0xda,
        0x18, 0xff, 0x13, 0x05, 0x1b, 0x0a, 0xf7, 0x0b, 0x13, 0xe2, 0xe2, 0x05,
        0xe5, 0x00, 0xfc, 0x02, 0xf4, 0xde, 0xdf, 0x01, 0xf7, 0xfc, 0xe5, 0x18,
        0x04, 0xf7, 0xf7, 0xe3, 0x00, 0x08, 0xe6, 0xf2, 0xfa, 0xed, 0x13, 0xeb,
        0x1a, 0x12, 0xd8, 0x0a, 0xf6, 0xe6, 0x02, 0x22, 0xca, 0x22, 0x0d, 0xdd,
        0xe5, 0xe0, 0xec, 0x13, 0xf6, 0x0e, 0xc6, 0xf6, 0xfe, 0x0b, 0xf1, 0x18,
        0x05, 0xfe, 0x06, 0xf3, 0x09, 0xd6, 0x23, 0xf6, 0x10, 0xf1, 0xf3, 0xf1,
        0x09, 0xd6, 0xfb, 0x06, 0xd7, 0xf0, 0xe2, 0xde, 0xc8, 0xe1, 0xff, 0xf0,
        0xf9, 0x14, 0xc4, 0xf0, 0x0e, 0xf7, 0xd7, 0x00, 0x0c, 0x06, 0xcc, 0xdf,
        0xc7, 0xbc, 0xf3, 0xdf, 0x14, 0x05, 0xfd, 0xd6, 0xfb, 0xf1, 0x1d, 0x0d,
        0x06, 0xfc, 0xf9, 0xf6, 0xec, 0x08, 0xef, 0x10, 0x1a, 0xe1, 0xea, 0x07,
        0x12, 0xf6, 0x04, 0xe5, 0x06, 0xe8, 0xda, 0x09, 0xff, 0xe4, 0x08, 0xee,
        0x13, 0x11, 0xfe, 0xdf, 0xf6, 0xf8, 0xef, 0x15, 0xd8, 0xe1, 0xec, 0x0f,
        0xf2, 0x03, 0x08, 0xd4, 0x01, 0x12, 0xcc, 0xf6, 0xf8, 0x15, 0xde, 0x19,
        0x05, 0x0b, 0x00, 0xea, 0xed, 0xf1, 0x1d, 0xf2, 0x12, 0xf7, 0x05, 0x1b,
        0xf0, 0x20, 0x06, 0x06, 0x02, 0xfa, 0xee, 0xfa, 0xf4, 0xee, 0xf9, 0x2e,
        0xe2, 0x06, 0x03, 0xf0, 0xea, 0xf7, 0xf8, 0x04, 0x06, 0xf2, 0xee, 0x0a,
        0xee, 0x19, 0x0d, 0x05, 0xf5, 0xe7, 0xd9, 0xe8, 0x14, 0xf4, 0x06, 0xfe,
        0x01, 0x10, 0x03, 0xf7, 0xf5, 0xfe, 0x00, 0xe6, 0xf6, 0x0a, 0x08, 0xeb,
        0x1d, 0xfe, 0x0c, 0xff, 0x0f, 0x10, 0xe0, 0x01, 0xf3, 0xe4, 0x20, 0xef,
        0xd8, 0xf9, 0xf6, 0xd7, 0xf7, 0xf2, 0x0a, 0x00, 0xfb, 0x0e, 0xed, 0xe6,
        0xec, 0xff, 0xf4, 0x07, 0x0f, 0x11, 0x02, 0xf7, 0x10, 0xf6, 0x02, 0xe6,
        0x03, 0xfc, 0xdd, 0xed, 0xce, 0x1b, 0x04, 0xfb, 0xfe, 0xfd, 0xd2, 0xed,
        0x0e, 0xf3, 0xf9, 0xf2, 0x00, 0x15, 0x0b, 0xd6, 0xf6, 0xe5, 0xf6, 0xf0,
        0xf9, 0xee, 0xef, 0xf0, 0xee, 0x0a, 0x0d, 0x00, 0xfa, 0xea, 0x03, 0xf9,
        0xfa, 0x00, 0xf4, 0xf8, 0xf7, 0xe6, 0xf1, 0xf6, 0xff, 0x08, 0x02, 0x08,
        0xef, 0xfe, 0xf7, 0xe4, 0xee, 0xe4, 0xef, 0xef, 0xf6, 0xf4, 0xe3, 0xed,
        0xdc, 0x04, 0xff, 0x08, 0xf4, 0xe1, 0xfa, 0xe1, 0xfa, 0xf6, 0x07, 0xf5,
        0xf5, 0xed, 0xf2, 0xf7, 0x0d, 0xed, 0xfe, 0xee, 0xe9, 0xf1, 0x00, 0xe5,
        0xf6, 0xf4, 0xf1, 0xf3, 0xf0, 0x0b, 0xeb, 0x03, 0xe0, 0xfd, 0xef, 0xff,
        0xfe, 0xe4, 0x00, 0xdf, 0xff, 0xf7, 0x01, 0xe9, 0xfc, 0xec, 0xea, 0x08,
        0xef, 0xdc, 0x00, 0xfd, 0xe5, 0x06, 0xf4, 0xda, 0xda, 0xed, 0x23, 0xf0,
        0xfb, 0x20, 0x0d, 0xf9, 0x01, 0x3b, 0xfd, 0x38, 0xf3, 0xfb, 0xe6, 0xfa,
        0xe5, 0x24, 0xf9, 0x10, 0xb3, 0xdd, 0xfc, 0x0c, 0x1d, 0xf0, 0x08, 0xbb,
        0xf3, 0xff, 0xdb, 0xd9, 0xfd, 0xea, 0xe6, 0xf9, 0xeb, 0xeb, 0x0f, 0xf0,
        0xf9, 0xe2, 0xd1, 0xcd, 0xda, 0xf3, 0xd3, 0xe0, 0xf8, 0xf9, 0xc0, 0xd7,
        0xc4, 0xfb, 0xd6, 0xf1, 0x2a, 0xd6, 0x00, 0x09, 0xff, 0xe3, 0xce, 0x09,
        0x03, 0x1a, 0x08, 0xf4, 0xcf, 0x08, 0xf9, 0x09, 0x03, 0x06, 0xdf, 0x02,
        0xff, 0x06, 0xf3, 0xca, 0x1c, 0xc3, 0xf6, 0x10, 0xd4, 0xf3, 0x01, 0xc9,
        0xe3, 0x00, 0xe0, 0xeb, 0x02, 0xeb, 0x1c, 0xfa, 0xf7, 0x05, 0xfc, 0x37,
        0xfe, 0x07, 0xef, 0x00, 0x01, 0xfc, 0x07, 0x0f, 0x01, 0xf7, 0xf6, 0x18,
        0x08, 0x02, 0xec, 0x00, 0x07, 0xff, 0xe5, 0xee, 0x0d, 0x08, 0x16, 0x12,
        0x09, 0xe8, 0x08, 0xed, 0x1d, 0x0d, 0xe8, 0x03, 0xfd, 0xe8, 0xec, 0xf4,
        0x0f, 0x02, 0xf7, 0x00, 0xeb, 0xfa, 0xe3, 0x0c, 0x03, 0x1a, 0xed, 0x0d,
        0x07, 0x07, 0x03, 0x00, 0x2b, 0xe8, 0x17, 0xe1, 0xf8, 0x17, 0xcf, 0x00,
        0xf2, 0xfe, 0xd1, 0xde, 0xfd, 0xd9, 0xe7, 0xe0, 0xf1, 0xec, 0x33, 0xf0,
        0xdd, 0xfa, 0xd9, 0xdb, 0xc8, 0x12, 0xd2, 0xed, 0xf1, 0x0b, 0xd8, 0xe9,
        0x02, 0xd6, 0xf0, 0x01, 0x06, 0x01, 0xd8, 0x12, 0xf6, 0x06, 0xf9, 0xe5,
        0x02, 0xdf, 0xfb, 0x02, 0xf5, 0x09, 0xe6, 0x18, 0xf7, 0xfd, 0x14, 0x08,
        0xfa, 0x13, 0xfc, 0x0c, 0xe4, 0xff, 0x0e, 0x1a, 0xe2, 0x2e, 0xf7, 0x10,
        0x0d, 0xdb, 0xea, 0xf9, 0xf8, 0x17, 0x06, 0xeb, 0xfb, 0x11, 0xed, 0xf8,
        0xf7, 0xf8, 0xf0, 0xe6, 0x00, 0xf9, 0x03, 0xf8, 0xf1, 0x20, 0xdb, 0xf5,
        0xef, 0xe4, 0x08, 0x05, 0x02, 0xe2, 0x05, 0xff, 0xf0, 0x12, 0xdc, 0x05,
        0xf8, 0xe2, 0xed, 0x17, 0xe6, 0xff, 0xf3, 0xd8, 0xd2, 0x1b, 0xf9, 0xc9,
        0xfd, 0xd4, 0xff, 0xf9, 0x08, 0x0e, 0xdb, 0xf7, 0xd9, 0xe3, 0xfb, 0x05,
        0xe7, 0xc7, 0xd7, 0xf7, 0x10, 0xf5, 0x16, 0x24, 0x26, 0x17, 0x05, 0x1b,
        0x1e, 0x11, 0xe6, 0x02, 0x0a, 0xf4, 0x03, 0x0c, 0x0c, 0x19, 0x1f, 0x20,
        0x02, 0x02, 0x0e, 0x0c, 0x17, 0x0a, 0x11, 0x18, 0x1a, 0xf0, 0xfb, 0x11,
        0x07, 0xc9, 0xfe, 0xf6, 0x08, 0xfa, 0xd5, 0xf1, 0x1c, 0x0e, 0xf5, 0x0d,
        0x15, 0x0a, 0xe3, 0xdf, 0xf8, 0xec, 0xf5, 0x0a, 0xe5, 0x0d, 0xfe, 0xee,
        0x01, 0x08, 0xf6, 0xff, 0x30, 0xf5, 0xfd, 0x05, 0xec, 0x08, 0x01, 0xef,
        0xee, 0xf7, 0xd5, 0xfb, 0xf0, 0x1a, 0xdf, 0x0c, 0x07, 0xec, 0x04, 0x08,
        0x22, 0xfa, 0xff, 0xf4, 0x10, 0xe5, 0x1f, 0xcd, 0x08, 0x08, 0xf3, 0x11,
        0x0c, 0xd3, 0xe6, 0x19, 0xbe, 0xe0, 0xfb, 0x04, 0xf0, 0x07, 0xed, 0x16,
        0x0b, 0xc6, 0x26, 0x12, 0xec, 0x03, 0xf3, 0x07, 0xed, 0x05, 0xef, 0xf3,
        0x10, 0x24, 0x0c, 0x12, 0xf9, 0xf3, 0x1a, 0x07, 0x1c, 0xee, 0xec, 0xed,
        0xfa, 0xff, 0x10, 0x21, 0x00, 0x03, 0x10, 0xef, 0xff, 0xdc, 0xf8, 0xf2,
        0xf4, 0x04, 0x03, 0x1b, 0x00, 0x0b, 0x08, 0x10, 0x0c, 0xf5, 0x11, 0x03,
        0xfc, 0xf5, 0x0f, 0x0f, 0xe4, 0x08, 0x02, 0x16, 0x09, 0xf6, 0x09, 0xea,
        0x06, 0xcf, 0x05, 0x2f, 0xec, 0x00, 0xf4, 0xcd, 0xed, 0x08, 0xf8, 0x1f,
        0xf8, 0xec, 0xed, 0x1a, 0xd1, 0x06, 0x10, 0x0b, 0xf4, 0xe1, 0xfb, 0xee,
        0xf8, 0xf6, 0x14, 0xd6, 0xf9, 0xf8, 0x03, 0xf9, 0x0e, 0x06, 0xf7, 0xfe,
        0x00, 0xf7, 0xf5, 0xf5, 0x02, 0xf0, 0x20, 0xf4, 0xf6, 0xf6, 0xed, 0x11,
        0xff, 0x0c, 0xfe, 0xf7, 0xf8, 0xe1, 0xe9, 0xfa, 0x0d, 0xfd, 0xfa, 0xfc,
        0xf6, 0x06, 0xfa, 0xf5, 0x05, 0xff, 0x00, 0xfb, 0x01, 0x06, 0x05, 0x01,
        0xfd, 0xf5, 0x03, 0xf4, 0xff, 0xf1, 0xe0, 0x0d, 0xf0, 0x1a, 0xed, 0xee,
        0xfe, 0xfc, 0xf6, 0xf2, 0xf8, 0x05, 0x01, 0xf9, 0xef, 0x02, 0xfa, 0xee,
        0x07, 0xf8, 0x02, 0xeb, 0xfa, 0xfb, 0x07, 0xf3, 0xf0, 0x0f, 0x03, 0xfe,
        0x06, 0xeb, 0xf2, 0x03, 0xe8, 0x13, 0xe7, 0xf5, 0xed, 0xed, 0xfa, 0xfb,
        0x03, 0xfd, 0xed, 0x00, 0xee, 0xcf, 0x0a, 0xff, 0xf5, 0xf5, 0xf8, 0x38,
        0x04, 0xe8, 0x0e, 0x01, 0xf8, 0xfd, 0xe2, 0x11, 0xf5, 0xe6, 0xee, 0x1d,
        0xea, 0x10, 0xef, 0x0d, 0xff, 0xf9, 0xf1, 0xe3, 0x12, 0xf8, 0x07, 0x06,
        0x0d, 0x0c, 0x15, 0x14, 0x04, 0x00, 0x03, 0xfe, 0x0f, 0xef, 0xf4, 0x16,
        0x05, 0x16, 0xf4, 0x1a, 0x24, 0x14, 0x21, 0x25, 0x06, 0x1f, 0x15, 0x12,
        0x13, 0x18, 0x10, 0x05, 0x13, 0x05, 0xfe, 0x0a, 0xe1, 0xee, 0xbf, 0xf9,
        0xf4, 0xdd, 0x0f, 0xeb, 0xdf, 0x3b, 0xfd, 0xeb, 0x01, 0x12, 0x07, 0xef,
        0xe2, 0x04, 0xc4, 0xd8, 0xba, 0xfd, 0xde, 0x00, 0xc5, 0xca, 0x09, 0xb7,
        0xdf, 0xd8, 0xec, 0xe9, 0xdd, 0x14, 0xd4, 0x01, 0xc6, 0xe8, 0xd8, 0x06,
        0xd8, 0x06, 0x05, 0xf9, 0xfe, 0xd3, 0xff, 0xb0, 0xf4, 0xf0, 0xe8, 0xdc,
        0xec, 0xec, 0xcc, 0xd3, 0xd1, 0xc1, 0xec, 0xe6, 0x01, 0xcf, 0xf2, 0xe5,
        0xc3, 0xdb, 0x01, 0xbb, 0xd1, 0x1e, 0xe7, 0x21, 0xfd, 0xe5, 0x18, 0x09,
        0xd5, 0xb8, 0xe8, 0xf3, 0xfe, 0x01, 0xe9, 0xd2, 0x19, 0xed, 0xd8, 0xcd,
        0xf9, 0xe6, 0x05, 0xf4, 0x0d, 0x0c, 0xf0, 0xd6, 0xdb, 0xe9, 0x13, 0xf3,
        0xf3, 0x15, 0xf9, 0x05, 0x03, 0xf7, 0x2b, 0x2b, 0x07, 0xd6, 0x03, 0x0d,
        0x01, 0xf9, 0x05, 0x0d, 0x08, 0xd0, 0xec, 0xfa, 0xfb, 0xf4, 0xff, 0x15,
        0x26, 0x08, 0x10, 0x0c, 0xf2, 0x0c, 0xf3, 0xfc, 0x00, 0x17, 0xf2, 0xf9,
        0xea, 0xed, 0x0b, 0xf0, 0xe8, 0x0e, 0x1e, 0xe1, 0x16, 0xe1, 0xf9, 0x00,
        0x04, 0xd7, 0xf9, 0xea, 0xfb, 0xfc, 0xdf, 0xf9, 0x05, 0xfc, 0xfa, 0xeb,
        0xe1, 0x03, 0xf8, 0x01, 0xe0, 0x05, 0x04, 0x0d, 0xf9, 0xfb, 0x11, 0xea,
        0xe2, 0x18, 0x0e, 0xf4, 0x19, 0xde, 0xf4, 0xe9, 0x01, 0xf0, 0xfc, 0xf4,
        0x00, 0xf9, 0xfc, 0xf1, 0x0d, 0xeb, 0x08, 0x02, 0xe8, 0xf8, 0xe6, 0xec,
        0xf9, 0xf9, 0xf8, 0xf8, 0xef, 0x0c, 0xf8, 0xfb, 0xf4, 0x0f, 0xe8, 0x11,
        0x05, 0xfe, 0xee, 0xfa, 0xec, 0x19, 0x00, 0x16, 0xe5, 0xf9, 0xf6, 0x02,
        0x00, 0xf6, 0x00, 0xe6, 0x21, 0xfd, 0xee, 0x23, 0xe0, 0xd0, 0x08, 0x18,
        0xf5, 0x1b, 0x1a, 0xe3, 0x0f, 0x0f, 0xf1, 0x27, 0xf3, 0xef, 0xf9, 0x03,
        0xbe, 0x1a, 0xfd, 0x16, 0xd0, 0xfa, 0xe2, 0x0b, 0x39, 0x0e, 0xf1, 0xf8,
        0x1f, 0xde, 0xe9, 0x13, 0xe6, 0xdb, 0xe7, 0x15, 0xfa, 0x05, 0x01, 0xe4,
        0x17, 0xd6, 0xe6, 0xe2, 0x12, 0xf8, 0xdc, 0xfd, 0xf3, 0x1d, 0xe6, 0xfa,
        0xfc, 0x0a, 0xf9, 0xf8, 0x27, 0xe2, 0xe3, 0x12, 0xdf, 0xf5, 0xf6, 0x10,
        0xbb, 0xee, 0xe7, 0xfe, 0xea, 0xec, 0x07, 0xfe, 0xf7, 0xfe, 0x05, 0x0c,
        0x0b, 0xf0, 0xf1, 0xe3, 0xe4, 0x26, 0x1e, 0xf7, 0xf0, 0x02, 0xeb, 0x21,
        0xe7, 0xee, 0xb6, 0x18, 0x0c, 0xfb, 0x00, 0xfd, 0x16, 0xf2, 0xe6, 0xf9,
        0x1d, 0xf2, 0x05, 0xe9, 0x09, 0x0c, 0xc0, 0xe3, 0xed, 0xed, 0xdd, 0x26,
        0x24, 0xd5, 0xfb, 0x14, 0xfb, 0xf7, 0xdb, 0xf4, 0xf1, 0xf9, 0x04, 0x17,
        0xeb, 0x06, 0xf3, 0xff, 0xe9, 0xf8, 0x15, 0xc6, 0xf5, 0xf1, 0xd4, 0x1d,
        0xfc, 0xfe, 0x0f, 0x0e, 0xf7, 0x12, 0xed, 0x06, 0xf4, 0xda, 0x0c, 0x0a,
        0xd4, 0xce, 0x10, 0xe6, 0xdd, 0x1e, 0xee, 0x1a, 0xf2, 0x04, 0xd7, 0xf1,
        0xee, 0xfd, 0xfa, 0xe6, 0x08, 0x1e, 0x00, 0xd8, 0x07, 0x26, 0x05, 0xf7,
        0xf5, 0xeb, 0xe7, 0xf0, 0xec, 0x14, 0x14, 0x02, 0xf1, 0x05, 0xfd, 0xf6,
        0xfa, 0xf6, 0x07, 0x16, 0x05, 0xfa, 0xf3, 0x18, 0xf5, 0xfc, 0x1a, 0xc9,
        0x0e, 0xf5, 0x20, 0xf5, 0xfa, 0x1b, 0x19, 0x0b, 0x06, 0x03, 0x10, 0x1c,
        0xfd, 0xf7, 0x02, 0x13, 0xed, 0xe3, 0x20, 0x2c, 0xff, 0x3b, 0x01, 0xdc,
        0xff, 0x0c, 0xfb, 0x14, 0xf2, 0xec, 0x02, 0xdc, 0x15, 0x05, 0x04, 0xcf,
        0x12, 0xfd, 0x10, 0xeb, 0xf7, 0xfb, 0xe5, 0x1a, 0xe3, 0x1b, 0xd9, 0xf5,
        0xd7, 0xf6, 0x0d, 0x02, 0xf7, 0x1d, 0x18, 0x18, 0xf6, 0xf4, 0xef, 0x13,
        0xf4, 0xfc, 0x1c, 0x0d, 0xe9, 0xf4, 0xfd, 0xed, 0xfa, 0xfc, 0xfe, 0x05,
        0xdd, 0x34, 0xf9, 0xfa, 0xde, 0x0c, 0xfe, 0x12, 0xe1, 0xeb, 0x21, 0x0d,
        0x12, 0xf1, 0x17, 0xe2, 0xd7, 0x08, 0x0a, 0x0a, 0xe7, 0xe4, 0x05, 0xdd,
        0xe4, 0xfa, 0xe7, 0xf1, 0x02, 0xf1, 0xf9, 0xfa, 0xf7, 0xfa, 0xf2, 0xe7,
        0x01, 0x08, 0x16, 0x05, 0xfe, 0xf1, 0xf6, 0x05, 0x03, 0xf3, 0xe0, 0x06,
        0xec, 0x0e, 0xfb, 0x0d, 0xd6, 0xe9, 0x03, 0xfc, 0xe9, 0x15, 0xec, 0xdf,
        0xf9, 0xf4, 0x11, 0xf0, 0xfd, 0xe7, 0xd5, 0xcf, 0xd1, 0xf0, 0x0f, 0xed,
        0xbf, 0xf8, 0xd4, 0xf1, 0x04, 0xef, 0xe3, 0x06, 0x05, 0x07, 0xf9, 0xfa,
        0xcf, 0x08, 0xed, 0x11, 0xe9, 0x09, 0x09, 0x0b, 0xee, 0xda, 0xf8, 0xf1,
        0xfe, 0xf2, 0xf9, 0x0c, 0xe4, 0x2c, 0x01, 0x11, 0x1b, 0x13, 0xf0, 0x0f,
        0x11, 0x02, 0xe7, 0xd8, 0xe1, 0x13, 0xed, 0xff, 0xee, 0xe1, 0xd3, 0xf2,
        0xfc, 0xf6, 0xed, 0xe0, 0xed, 0x0b, 0x06, 0x01, 0x0b, 0xda, 0xef, 0xf6,
        0xec, 0xf5, 0xe2, 0xde, 0xc5, 0xf9, 0xed, 0xf0, 0x13, 0xe4, 0xbb, 0x07,
        0xea, 0x0c, 0xeb, 0xe8, 0xfe, 0xf1, 0xf5, 0xe6, 0xc7, 0x1c, 0xf3, 0x16,
        0x0a, 0x14, 0x00, 0xdc, 0xf4, 0xeb, 0xd0, 0xe9, 0x02, 0x12, 0x12, 0xf7,
        0xda, 0xeb, 0xf8, 0x09, 0xd8, 0xff, 0x08, 0xfc, 0x0a, 0x0b, 0xe2, 0x1b,
        0xfc, 0x14, 0x10, 0xf2, 0xe1, 0xeb, 0x0e, 0xea, 0x1a, 0x2f, 0x1a, 0xdb,
        0x10, 0x19, 0x17, 0xf6, 0x05, 0xe6, 0x03, 0xf1, 0xd7, 0xf1, 0x05, 0x06,
        0xd4, 0xe6, 0xe2, 0xdd, 0xf4, 0xf8, 0xcc, 0xbd, 0xd5, 0xf9, 0xf6, 0xb8,
        0xbf, 0x07, 0xa8, 0xc7, 0xdc, 0xd7, 0x16, 0xb8, 0xde, 0xef, 0xe1, 0xfd,
        0xc2, 0xd2, 0xe8, 0xd1, 0xde, 0xd3, 0xec, 0xdd, 0x0a, 0xea, 0xf3, 0xde,
        0x09, 0xe5, 0xfc, 0xd1, 0xf3, 0xfb, 0xc0, 0xac, 0xde, 0xe2, 0xcd, 0xc2,
        0xc6, 0xf4, 0x08, 0xc4, 0xf2, 0xd8, 0xd9, 0xef, 0xd2, 0xd4, 0xd5, 0xc5,
        0xcf, 0xd9, 0xe2, 0xb8, 0xdb, 0xf1, 0xeb, 0xdf, 0x01, 0x02, 0xe2, 0xcb,
        0x0e, 0x01, 0xd7, 0x0c, 0xf7, 0xe8, 0xbd, 0xf1, 0xd8, 0xf1, 0x03, 0xe1,
        0xf1, 0x10, 0xf8, 0xfa, 0x18, 0xd7, 0xe7, 0xd4, 0xca, 0xda, 0xf0, 0xbd,
        0x1a, 0x2b, 0x03, 0xe3, 0xf2, 0xfa, 0xf7, 0xf2, 0xf4, 0xfe, 0xfb, 0x04,
        0x17, 0x17, 0xf7, 0xf6, 0xf0, 0x0b, 0x0e, 0xdb, 0x01, 0xfa, 0xd6, 0xf0,
        0xe1, 0xfe, 0xe8, 0xe2, 0xed, 0xf2, 0xf5, 0xe4, 0x20, 0x0d, 0x05, 0xfa,
        0x01, 0xfb, 0xea, 0xfe, 0xf7, 0xfb, 0xfe, 0xf3, 0xfd, 0xfa, 0x11, 0x12,
        0x01, 0xf9, 0xe1, 0xf8, 0x15, 0x0f, 0x06, 0x15, 0xe3, 0xfe, 0xf4, 0xf1,
        0xf4, 0xfd, 0xfa, 0xf8, 0x1d, 0x13, 0xfb, 0xfc, 0xe5, 0xee, 0xee, 0xf8,
        0xf2, 0xf2, 0x07, 0xf1, 0x12, 0x0a, 0x19, 0x03, 0xed, 0x14, 0xff, 0x0b,
        0x0e, 0x0a, 0xf5, 0x00, 0xe6, 0x06, 0x0f, 0xf7, 0xfc, 0xed, 0x0e, 0x06,
        0xf6, 0x09, 0x00, 0xfb, 0xf8, 0x08, 0x03, 0xf5, 0xed, 0xf8, 0xe5, 0xe4,
        0x12, 0xf2, 0x11, 0x0c, 0xeb, 0xeb, 0x10, 0xec, 0x06, 0xfa, 0xed, 0xf4,
        0x02, 0x0d, 0xf5, 0xe4, 0xf0, 0xfe, 0xfb, 0x0b, 0xf4, 0xf5, 0xe3, 0xed,
        0xef, 0xfc, 0x0d, 0xf5, 0x07, 0xf2, 0xed, 0xf4, 0x09, 0xf9, 0x02, 0x0c,
        0xee, 0xfb, 0x19, 0xf3, 0x15, 0x11, 0xea, 0x01, 0xff, 0xff, 0x0e, 0xde,
        0xf9, 0x05, 0xfb, 0xee, 0xf4, 0xf1, 0x04, 0x00, 0xff, 0x11, 0x08, 0xfc,
        0x02, 0xf0, 0xf8, 0xe6, 0x05, 0xfc, 0xf4, 0x10, 0xec, 0xf6, 0xff, 0xeb,
        0xff, 0xfe, 0xfa, 0x08, 0xe6, 0x11, 0x17, 0xe2, 0xdf, 0xed, 0x03, 0x07,
        0x08, 0xe6, 0xe6, 0x02, 0xdb, 0x0c, 0xee, 0xf2, 0xd3, 0xc0, 0x14, 0x0e,
        0xf9, 0xe4, 0x0a, 0x04, 0xf3, 0x1d, 0xec, 0x06, 0xff, 0xdc, 0xea, 0xe4,
        0x9a, 0x3c, 0xe8, 0x00, 0xc2, 0xe0, 0x1e, 0x0d, 0x14, 0x11, 0x2a, 0xf0,
        0xe9, 0xde, 0xf0, 0x1a, 0xf1, 0xdc, 0x1d, 0x21, 0x01, 0x1e, 0x24, 0x0d,
        0x05, 0x24, 0xe0, 0x0f, 0xff, 0x05, 0x0f, 0xd0, 0xd4, 0x22, 0xfc, 0x07,
        0x03, 0xfe, 0x12, 0x02, 0xf6, 0xf0, 0x16, 0x0e, 0x00, 0xee, 0xe6, 0xfb,
        0xde, 0xe8, 0xfd, 0xea, 0xfe, 0x3d, 0x19, 0xf5, 0x00, 0x09, 0xee, 0x06,
        0x00, 0x08, 0xfd, 0xf7, 0xbd, 0x1e, 0x01, 0x03, 0x08, 0x06, 0x10, 0xf7,
        0xea, 0x0d, 0x0c, 0x02, 0xf4, 0xf4, 0x18, 0xf4, 0xf7, 0xfc, 0x14, 0xc0,
        0xfd, 0x17, 0xf2, 0xf4, 0x00, 0x24, 0x05, 0x12, 0x03, 0xfa, 0x01, 0xe9,
        0x09, 0x02, 0x00, 0x0f, 0xf2, 0xf4, 0x0b, 0x28, 0xf9, 0x34, 0xf7, 0xf9,
        0x02, 0xee, 0x0f, 0x09, 0xe3, 0xea, 0x0a, 0xcf, 0xe9, 0x17, 0xe3, 0xe1,
        0xf6, 0x03, 0xff, 0xfa, 0xf5, 0xfd, 0xec, 0xf9, 0xe7, 0xfa, 0xfd, 0x17,
        0xe4, 0x03, 0xf7, 0xea, 0xf8, 0x10, 0xf3, 0x0e, 0xfc, 0x03, 0x0c, 0xf8,
        0x02, 0xff, 0x15, 0x2f, 0x1d, 0xde, 0x15, 0x0a, 0xe5, 0x22, 0x00, 0x12,
        0x03, 0xee, 0x14, 0x08, 0xec, 0x31, 0x08, 0x36, 0xf7, 0xe5, 0xea, 0x12,
        0x0b, 0x00, 0xfb, 0x05, 0xe2, 0x0b, 0xb1, 0xde, 0xf8, 0xe0, 0xde, 0x00,
        0xf2, 0xe4, 0x29, 0xf1, 0xf0, 0x11, 0xf7, 0xf4, 0x01, 0xe4, 0xc2, 0xf6,
        0xea, 0x3a, 0xd3, 0xcd, 0xc2, 0xcb, 0xd2, 0xff, 0x33, 0xfa, 0x19, 0xe1,
        0xf7, 0xee, 0xde, 0x15, 0x06, 0x05, 0x01, 0xf0, 0xe7, 0x08, 0x18, 0xdd,
        0x0c, 0x00, 0xda, 0x0a, 0x0d, 0x05, 0x0e, 0xdd, 0x1f, 0xfc, 0x19, 0xff,
        0xe5, 0xfa, 0x03, 0x05, 0xef, 0x15, 0x20, 0x04, 0x0e, 0x06, 0xb7, 0x0f,
        0x00, 0x0d, 0x07, 0x0d, 0xf5, 0x41, 0x1e, 0xe7, 0x02, 0x1b, 0x0e, 0x08,
        0x05, 0xfe, 0xef, 0xeb, 0xf5, 0x09, 0xf4, 0x03, 0xdc, 0xed, 0xfb, 0xe0,
        0x01, 0xfa, 0x13, 0xf4, 0xf4, 0xf4, 0xf8, 0xed, 0x02, 0xfd, 0xed, 0xed,
        0xf6, 0xf3, 0xfa, 0xf7, 0xfc, 0xf5, 0x0c, 0xd4, 0x0b, 0xf2, 0xfc, 0x09,
        0xec, 0xf5, 0xe1, 0xf4, 0xfb, 0xf0, 0xe1, 0xfc, 0x04, 0x09, 0xf6, 0xf4,
        0x08, 0x03, 0xf7, 0xf0, 0xfc, 0xeb, 0xf0, 0xf9, 0xff, 0x01, 0xf4, 0xef,
        0x0a, 0xf4, 0xe6, 0xed, 0x08, 0xe3, 0xff, 0xf5, 0xed, 0xf0, 0xed, 0xed,
        0xfa, 0xf2, 0xf1, 0xf6, 0xfa, 0x03, 0x05, 0xf0, 0xf7, 0xf6, 0xeb, 0xea,
        0xf3, 0xff, 0xed, 0xf9, 0xfc, 0x09, 0x01, 0xe9, 0xec, 0xfa, 0xf4, 0xf1,
        0x0c, 0xff, 0xf2, 0xf6, 0xf9, 0x05, 0xfc, 0x02, 0xf4, 0xe0, 0x02, 0xef,
        0x0f, 0x13, 0x10, 0x03, 0xf5, 0x02, 0x00, 0xf4, 0xef, 0xf8, 0xee, 0xf3,
        0xfa, 0xfc, 0x06, 0xf7, 0x03, 0xf2, 0xf5, 0xf8, 0x01, 0xf3, 0xf2, 0xeb,
        0xe3, 0x0e, 0xec, 0xf8, 0xf4, 0x00, 0xf4, 0xf5, 0xed, 0xf9, 0xf4, 0xed,
        0x08, 0xf4, 0x01, 0x07, 0xf3, 0x0f, 0xec, 0xf9, 0xf9, 0xef, 0x09, 0xf6,
        0xfe, 0xfa, 0x04, 0xfa, 0x03, 0xfb, 0xfa, 0xfb, 0xf1, 0xfc, 0xee, 0x00,
        0xf8, 0xfa, 0x0d, 0xe7, 0xf3, 0xe7, 0xf3, 0xf8, 0x01, 0xe8, 0xf5, 0xfd,
        0x01, 0x00, 0xf0, 0xe5, 0xfc, 0xeb, 0xf9, 0xf6, 0xfb, 0xef, 0x09, 0xe8,
        0x02, 0xfb, 0xf9, 0xf3, 0x00, 0x07, 0xf9, 0x01, 0xef, 0xf3, 0x0f, 0xfe,
        0xf8, 0xf3, 0x05, 0xf7, 0xf7, 0xfb, 0xf8, 0x00, 0x01, 0x05, 0xfd, 0xf9,
        0x03, 0xfd, 0xf1, 0xf4, 0xf4, 0xfd, 0x07, 0xfb, 0x02, 0xf4, 0xf8, 0xfe,
        0x01, 0xf8, 0x04, 0x03, 0xfc, 0xf7, 0xf7, 0xff, 0xfa, 0xf6, 0xf2, 0xf7,
        0x02, 0x03, 0xfe, 0x02, 0xfe, 0xf5, 0xf6, 0x01, 0xf7, 0xfc, 0xf3, 0xf6,
        0xfe, 0xf5, 0xfc, 0xfb, 0x0a, 0xfe, 0xfc, 0xfa, 0xfb, 0x06, 0xf6, 0xf5,
        0xfa, 0xf8, 0xff, 0xf1, 0xf9, 0xf9, 0x05, 0xfa, 0xfd, 0x01, 0xfe, 0xf8,
        0xf4, 0x00, 0xf8, 0xf3, 0xff, 0xf7, 0x00, 0xf9, 0xfe, 0x05, 0xfe, 0xf4,
        0x08, 0x01, 0xf7, 0xf4, 0xfd, 0x04, 0x04, 0x04, 0xfd, 0x01, 0xff, 0xf7,
        0xf8, 0xf5, 0xfa, 0xf4, 0xfb, 0xe7, 0xe6, 0x0d, 0xf3, 0x05, 0x04, 0xc5,
        0x3d, 0xf6, 0x2c, 0x11, 0xf9, 0xf3, 0xc5, 0x26, 0xe5, 0xfa, 0x0c, 0xdc,
        0xfd, 0x2c, 0x05, 0x08, 0x01, 0x0b, 0xfc, 0x13, 0x03, 0x1a, 0x09, 0x06,
        0xf5, 0xbb, 0x05, 0x05, 0x01, 0x08, 0xe2, 0x15, 0xf4, 0xb8, 0xfe, 0x04,
        0xf2, 0xdb, 0xbb, 0xce, 0x18, 0xfd, 0xeb, 0xf0, 0xf8, 0x04, 0xf7, 0xf2,
        0x14, 0xff, 0xd5, 0xfb, 0xac, 0x0b, 0xe7, 0x0e, 0xfa, 0xfb, 0x13, 0xff,
        0x10, 0x28, 0x07, 0x0d, 0xf0, 0x31, 0xf8, 0xf3, 0x05, 0x19, 0xf5, 0x17,
        0xf9, 0xea, 0x11, 0xf4, 0x0b, 0xa5, 0x12, 0x07, 0xf9, 0x15, 0x11, 0xf4,
        0xda, 0x14, 0xf5, 0xc3, 0xff, 0xfe, 0xbe, 0xca, 0xf0, 0xe9, 0xd6, 0xc3,
        0xc7, 0xfc, 0xd2, 0xc7, 0xd1, 0xe7, 0x20, 0xc6, 0xfc, 0xed, 0xd9, 0x01,
        0xd6, 0xd5, 0xce, 0xee, 0xd4, 0xd5, 0xe3, 0xc6, 0x07, 0x00, 0x0a, 0xc4,
        0xf9, 0xff, 0xe9, 0xdd, 0xf7, 0x06, 0xda, 0xb7, 0xe0, 0xdf, 0xe7, 0xca,
        0xce, 0xea, 0x07, 0xda, 0xff, 0xd8, 0xef, 0xfc, 0xd1, 0xd3, 0xce, 0xe9,
        0xd4, 0xd3, 0xeb, 0xb9, 0xf4, 0x00, 0xf7, 0xe2, 0x03, 0x1a, 0xd8, 0xc6,
        0xf2, 0x18, 0xed, 0xfa, 0xf9, 0xeb, 0xdc, 0xf9, 0xd7, 0xf3, 0x02, 0xeb,
        0xff, 0xf6, 0xea, 0xed, 0xc7, 0xe4, 0xf7, 0x0d, 0xd0, 0xd4, 0xe7, 0xbf,
        0x2e, 0x2c, 0x00, 0xe4, 0xf6, 0x05, 0xff, 0xf0, 0xfd, 0x09, 0xf7, 0x00,
        0xfc, 0x00, 0xf0, 0xff, 0x03, 0xff, 0xfa, 0xfc, 0xef, 0x02, 0xee, 0x02,
        0xf6, 0x03, 0xf5, 0xfe, 0xf6, 0xfa, 0xf5, 0xf4, 0xed, 0x06, 0x06, 0x05,
        0xfd, 0xee, 0xfa, 0xfc, 0xf9, 0xf9, 0xf3, 0xfd, 0xf6, 0xf4, 0x04, 0xf6,
        0xea, 0xec, 0x03, 0xe9, 0x0b, 0xf3, 0xfc, 0x02, 0x02, 0xf9, 0xfc, 0xf4,
        0xf8, 0x00, 0xff, 0xff, 0xf0, 0xf4, 0x05, 0xf4, 0xfa, 0xfb, 0xf4, 0xed,
        0xfc, 0xfa, 0x01, 0x06, 0xef, 0xfb, 0x07, 0xfb, 0xef, 0x02, 0xf6, 0xef,
        0x00, 0xff, 0xf7, 0xf2, 0xfc, 0xf8, 0x04, 0xf3, 0xf3, 0x03, 0x01, 0xef,
        0xfb, 0xfe, 0xfa, 0x06, 0xea, 0xfb, 0x05, 0xfa, 0xf7, 0xf8, 0x0b, 0xe9,
        0xe8, 0x19, 0xf5, 0xe6, 0xf6, 0xfd, 0xe8, 0x04, 0x08, 0xe6, 0x04, 0xf9,
        0x01, 0xe1, 0x08, 0xfa, 0xf6, 0xfa, 0xf7, 0xf8, 0xe1, 0xfd, 0x02, 0xf4,
        0xe8, 0xf7, 0xde, 0xd3, 0xe7, 0xed, 0x0b, 0xd6, 0xf4, 0x14, 0x04, 0xdf,
        0xff, 0xf4, 0x00, 0x0b, 0xdf, 0x17, 0xf7, 0xdb, 0xe4, 0x19, 0x24, 0xdb,
        0xeb, 0xf9, 0xe8, 0xfd, 0x13, 0xeb, 0xf1, 0xee, 0x07, 0x05, 0xf7, 0x08,
        0xfd, 0x08, 0x04, 0xe7, 0xf1, 0xf7, 0x01, 0xec, 0xf2, 0x0d, 0x11, 0xe9,
        0x15, 0xf2, 0xe1, 0xef, 0xf6, 0xf5, 0xe9, 0xe2, 0xd8, 0xe7, 0x11, 0xf4,
        0xf3, 0xe1, 0xfd, 0xf0, 0x06, 0x02, 0xfb, 0xe6, 0xf1, 0xff, 0x01, 0xf4,
        0xfe, 0xfc, 0xf8, 0xe2, 0xfd, 0xf6, 0xfe, 0xef, 0xf5, 0xe6, 0xf6, 0x02,
        0x08, 0xfe, 0xfc, 0x0c, 0xf7, 0x01, 0xe8, 0xea, 0x01, 0x1c, 0x08, 0x0a,
        0xf5, 0x14, 0xf7, 0xfc, 0x08, 0x08, 0x05, 0xf0, 0xf0, 0x02, 0xe0, 0xf2,
        0xeb, 0x13, 0x0a, 0x02, 0xfd, 0xfd, 0xf4, 0xf7, 0xff, 0xe4, 0xe4, 0xfc,
        0xfb, 0xf4, 0xfd, 0x05, 0x04, 0x0c, 0x05, 0x01, 0xf6, 0xf5, 0x01, 0xf7,
        0x07, 0x05, 0x00, 0xe5, 0xf9, 0xe9, 0xfc, 0xf1, 0xe4, 0xf9, 0xec, 0xf5,
        0x04, 0x03, 0xda, 0x02, 0xe9, 0xf3, 0xe8, 0xfb, 0xf4, 0x05, 0xff, 0xf5,
        0xf0, 0xff, 0x12, 0xe8, 0xff, 0xe8, 0xfe, 0xf8, 0xf0, 0x1c, 0x12, 0xe5,
        0xe7, 0x13, 0x02, 0xdc, 0xed, 0x09, 0xf9, 0xfd, 0xfa, 0xf4, 0x16, 0xf7,
        0x0e, 0xf5, 0xf1, 0xfd, 0x0e, 0x06, 0xfe, 0x0d, 0x09, 0x21, 0x16, 0x0f,
        0xf6, 0x03, 0xdd, 0xea, 0xfb, 0xfd, 0xfd, 0x09, 0xe6, 0x0d, 0xd9, 0xe9,
        0xe7, 0x10, 0x0a, 0xfd, 0x0d, 0x02, 0x00, 0xf2, 0xf9, 0x05, 0xfa, 0xf3,
        0x02, 0xf7, 0x00, 0xf4, 0x18, 0xf9, 0x11, 0x09, 0xf8, 0xfc, 0xef, 0xf2,
        0xf9, 0xe6, 0xff, 0x00, 0xf5, 0xf2, 0xe8, 0x09, 0xfd, 0xfc, 0x06, 0x02,
        0xfe, 0xf3, 0xf0, 0xfd, 0xf1, 0xf2, 0xf8, 0xe7, 0xf1, 0xf2, 0xe8, 0xe7,
        0x07, 0xf2, 0x0f, 0xf4, 0xe0, 0xee, 0xde, 0xb8, 0xd5, 0xa5, 0xd5, 0x09,
        0xcd, 0xec, 0xde, 0xef, 0xeb, 0xf8, 0xf1, 0xe4, 0xf6, 0xe6, 0xca, 0xc6,
        0xd4, 0xee, 0xda, 0xf4, 0xde, 0xb9, 0xe0, 0xd1, 0x0a, 0x07, 0xfe, 0xe3,
        0x02, 0x02, 0xfc, 0xf5, 0x02, 0x02, 0xf4, 0xed, 0x10, 0x21, 0xfc, 0x15,
        0x13, 0x12, 0x08, 0x0f, 0xf0, 0x1b, 0xe3, 0x08, 0x08, 0xfa, 0xff, 0x01,
        0xf2, 0xfd, 0xef, 0xd4, 0x04, 0x03, 0x08, 0x22, 0x01, 0xea, 0xed, 0xfa,
        0x07, 0x04, 0x23, 0x18, 0x09, 0x33, 0x02, 0x07, 0xff, 0x16, 0xfe, 0x1f,
        0x08, 0x09, 0xfd, 0xfe, 0xfc, 0x03, 0x17, 0x08, 0xf1, 0xde, 0x10, 0x15,
        0x09, 0x06, 0x28, 0x00, 0xe4, 0xd4, 0x09, 0x09, 0xf0, 0xef, 0xe0, 0xfe,
        0x00, 0x06, 0x0d, 0x04, 0xe3, 0xee, 0xc6, 0xf0, 0xe5, 0xf0, 0xfb, 0xe9,
        0x13, 0xfa, 0x04, 0xcb, 0xf9, 0xcf, 0x17, 0x1f, 0xc9, 0xcf, 0xee, 0x14,
        0x12, 0x09, 0xfa, 0xf4, 0x18, 0xf5, 0xff, 0xfe, 0xfc, 0xe2, 0xfd, 0xee,
        0xf7, 0xff, 0x1b, 0x19, 0x21, 0xd8, 0x10, 0x0d, 0x06, 0xd5, 0xfb, 0x18,
        0x00, 0xfc, 0xe9, 0xff, 0xf7, 0x18, 0xbd, 0xf6, 0xed, 0xfc, 0xe5, 0xfe,
        0xee, 0x04, 0xbf, 0xf4, 0x17, 0x17, 0x04, 0x06, 0x1b, 0x1f, 0x05, 0xe3,
        0xfa, 0xcb, 0xf3, 0xe6, 0xf5, 0xfc, 0xeb, 0xf5, 0x0b, 0x21, 0xc8, 0xdd,
        0xfd, 0xf4, 0xc9, 0x16, 0xaa, 0x99, 0x18, 0xec, 0xda, 0xf8, 0xfb, 0xee,
        0x01, 0x06, 0xe2, 0xfd, 0xe9, 0x07, 0xdf, 0x0a, 0xe1, 0x04, 0x06, 0xe9,
        0xff, 0xf6, 0x01, 0xf0, 0xff, 0xe3, 0xf5, 0xed, 0xc6, 0xf1, 0xe2, 0x17,
        0xc4, 0xb0, 0x03, 0xe6, 0xf2, 0x0d, 0xea, 0x03, 0x0e, 0xe0, 0xf4, 0xfb,
        0xf2, 0x09, 0xa2, 0x14, 0xe3, 0xdf, 0xfa, 0xc8, 0x11, 0x1c, 0xfa, 0x0b,
        0xf1, 0x15, 0xfd, 0xf8, 0xf4, 0xe8, 0xf9, 0xe4, 0xf6, 0xf4, 0x09, 0x06,
        0xfb, 0x10, 0xe3, 0xdd, 0xfe, 0x01, 0x09, 0xe9, 0xf5, 0xfc, 0xeb, 0xef,
        0x00, 0xf0, 0x1f, 0xe0, 0xfc, 0x02, 0xf1, 0xf5, 0x19, 0x1c, 0xd4, 0xdb,
        0xf8, 0xfd, 0xeb, 0xff, 0xe5, 0xce, 0xfc, 0x01, 0xe0, 0xeb, 0xdd, 0xe4,
        0x0a, 0x08, 0x0d, 0x0b, 0xfd, 0xef, 0xfe, 0xfd, 0x04, 0xf9, 0x05, 0xeb,
        0xea, 0x14, 0x1a, 0xeb, 0xfa, 0xfe, 0x00, 0x06, 0xdd, 0x1d, 0xed, 0x16,
        0xbf, 0xc8, 0xf1, 0xed, 0xb7, 0xd2, 0xe4, 0xde, 0x0f, 0xe6, 0x05, 0xf7,
        0xec, 0x19, 0xda, 0x1b, 0xf4, 0xed, 0x06, 0xd8, 0xde, 0x0c, 0xef, 0x04,
        0xe1, 0xff, 0x0a, 0xe6, 0x04, 0x1e, 0xd2, 0xec, 0xed, 0xfc, 0xf9, 0x0d,
        0xdb, 0x02, 0xd8, 0xfe, 0x12, 0x06, 0x32, 0x0c, 0x03, 0x09, 0xe2, 0xe0,
        0xff, 0xd7, 0xfd, 0xec, 0x00, 0x08, 0x02, 0xd1, 0x0b, 0x05, 0xdc, 0xea,
        0x25, 0xeb, 0xde, 0x10, 0xfa, 0x03, 0xd3, 0xc9, 0xc8, 0xd2, 0xfa, 0xf3,
        0x15, 0xef, 0xd2, 0xde, 0x04, 0x13, 0x00, 0xf8, 0x01, 0xec, 0xd2, 0x01,
        0xd3, 0xc5, 0xbb, 0x06, 0xf9, 0x03, 0x05, 0xd1, 0xee, 0xf8, 0x0b, 0xf4,
        0xec, 0xe7, 0xe9, 0x08, 0xca, 0xf0, 0xf4, 0x11, 0x10, 0x04, 0xe0, 0x01,
        0xf4, 0x11, 0xfd, 0xf4, 0xfe, 0xc7, 0xe3, 0xcb, 0x05, 0xe0, 0xef, 0x10,
        0xf9, 0x10, 0xe5, 0xdb, 0x08, 0x18, 0xf7, 0x12, 0x05, 0x00, 0xe2, 0x2a,
        0xe1, 0xe6, 0x06, 0xd9, 0xed, 0x49, 0xeb, 0xfe, 0x0c, 0x11, 0xf3, 0x0e,
        0xee, 0x0d, 0x01, 0xde, 0xc3, 0x0b, 0xe6, 0x15, 0xc7, 0xeb, 0x0e, 0x16,
        0x0b, 0x0f, 0xf8, 0xf0, 0xe9, 0xef, 0xe2, 0xcd, 0xd4, 0xb7, 0x0c, 0xf4,
        0xcd, 0x05, 0xda, 0xd7, 0x03, 0x25, 0xfd, 0x0a, 0xf3, 0x05, 0xf3, 0xe0,
        0xd9, 0x08, 0xf9, 0x00, 0xcc, 0xd0, 0x1d, 0xe1, 0x2e, 0x07, 0x11, 0xd0,
        0xf3, 0xf6, 0x11, 0xe8, 0x08, 0x01, 0x0e, 0x13, 0x02, 0xd7, 0xf6, 0x11,
        0xff, 0x16, 0x19, 0xf4, 0x0d, 0x06, 0xf3, 0x05, 0x1a, 0xee, 0x10, 0x0f,
        0x00, 0x16, 0xe3, 0xe2, 0xfe, 0x02, 0x0e, 0x12, 0xf4, 0x12, 0x04, 0xeb,
        0xf1, 0x04, 0x11, 0x10, 0x02, 0x17, 0xe9, 0xf0, 0x1d, 0xfe, 0x2a, 0x1a,
        0x0e, 0x1d, 0xe7, 0xf4, 0xf8, 0xe2, 0x12, 0x01, 0x10, 0x0b, 0x1a, 0x0a,
        0xda, 0xf7, 0x31, 0x10, 0xe6, 0xeb, 0xdc, 0xf3, 0xe0, 0xdd, 0xd3, 0xf0,
        0xea, 0x2b, 0xdd, 0xc6, 0xfd, 0xf0, 0xfa, 0xdf, 0x01, 0xc9, 0xd4, 0xd9,
        0xce, 0xf5, 0xdf, 0xdb, 0xec, 0xdd, 0xb2, 0xc8, 0x10, 0xfc, 0xf7, 0xf4,
        0xff, 0xe2, 0x07, 0x00, 0x14, 0xf8, 0x0c, 0x33, 0x03, 0xbd, 0xd5, 0xdc,
        0x16, 0xd2, 0xdd, 0xf3, 0x0a, 0x06, 0x0d, 0x0b, 0x03, 0xce, 0x02, 0x04,
        0x15, 0x05, 0xf1, 0xd0, 0xed, 0x18, 0xff, 0xd8, 0x00, 0x12, 0xf7, 0xf2,
        0xf1, 0x11, 0x02, 0x28, 0x0e, 0xe8, 0xe4, 0xdc, 0x06, 0x18, 0xf3, 0xf7,
        0x06, 0xf7, 0xda, 0x02, 0xe9, 0xe7, 0xe6, 0x00, 0xff, 0x18, 0xf6, 0xf3,
        0xfd, 0xf6, 0x20, 0xde, 0xfc, 0x15, 0x05, 0xf6, 0xf8, 0xf9, 0xe5, 0x02,
        0xc6, 0x06, 0xf9, 0xcd, 0xe1, 0xe4, 0xf2, 0x09, 0x17, 0xeb, 0x09, 0x11,
        0xf7, 0x16, 0xfd, 0xfb, 0xff, 0xf5, 0xe3, 0x0c, 0xfa, 0xd6, 0xe3, 0xe0,
        0xf7, 0x02, 0xfa, 0x03, 0x03, 0x01, 0xff, 0x1d, 0xdf, 0x16, 0x01, 0xf8,
        0x13, 0xe6, 0x0f, 0xfb, 0xf2, 0x09, 0x1e, 0x06, 0x00, 0x18, 0x1e, 0xf8,
        0xea, 0xf5, 0x06, 0x20, 0xfe, 0xfc, 0x0c, 0x10, 0xeb, 0xfe, 0xe1, 0xec,
        0xf5, 0x03, 0x04, 0x15, 0xe9, 0x12, 0xec, 0xd8, 0xf4, 0xe6, 0x11, 0x13,
        0xfe, 0x16, 0xce, 0xc8, 0xf6, 0xf8, 0xea, 0xfe, 0xf2, 0xc2, 0xf0, 0xe7,
        0xfc, 0xe8, 0xf5, 0xec, 0xce, 0xe3, 0x0f, 0xd6, 0xe1, 0x0a, 0xfb, 0xfa,
        0x1e, 0xc7, 0x0a, 0x27, 0x0a, 0xee, 0xc6, 0xd6, 0x0f, 0x18, 0xe9, 0xda,
        0xff, 0x03, 0x26, 0x08, 0xfb, 0xfc, 0x0e, 0xfc, 0x1d, 0xe2, 0x07, 0x29,
        0x0d, 0xfc, 0xf2, 0x0c, 0x03, 0xf8, 0x05, 0x07, 0xd9, 0x05, 0xeb, 0xf9,
        0xe1, 0xdd, 0x03, 0xcd, 0x09, 0x2b, 0xf5, 0x11, 0xe3, 0x08, 0x1c, 0xdf,
        0x05, 0x0c, 0x15, 0x14, 0xde, 0x16, 0xf9, 0x10, 0x20, 0x16, 0xe5, 0x17,
        0xfd, 0xdd, 0x16, 0xff, 0xe7, 0x0f, 0x06, 0xe4, 0xfa, 0xf8, 0xde, 0x26,
        0xf3, 0x0d, 0xe9, 0x18, 0xe4, 0xf3, 0xef, 0x13, 0xe5, 0x07, 0x11, 0xeb,
        0x0f, 0x09, 0x08, 0xf2, 0xf4, 0xfd, 0x05, 0x05, 0xf5, 0x05, 0xed, 0xf7,
        0xf6, 0x12, 0x00, 0x14, 0xfd, 0xf6, 0x10, 0xf3, 0x1d, 0x10, 0x03, 0xe9,
        0x07, 0xff, 0xff, 0x05, 0xfd, 0xfe, 0x11, 0x03, 0x0f, 0xee, 0xf5, 0xfe,
        0xfe, 0x0c, 0xe9, 0xf6, 0xf4, 0xf8, 0xf0, 0xe5, 0xf5, 0xfb, 0x08, 0x06,
        0xe8, 0xfa, 0x07, 0x03, 0x18, 0xf0, 0xf4, 0xe4, 0x00, 0x0d, 0xf4, 0xed,
        0xf0, 0xf3, 0x01, 0xf6, 0x0e, 0xf6, 0xf9, 0xf2, 0xf9, 0x01, 0xea, 0xf3,
        0xf7, 0xfa, 0xf4, 0xf4, 0xe3, 0xf1, 0xfb, 0xf8, 0xe6, 0xf1, 0xf8, 0xf2,
        0x06, 0x00, 0x06, 0xec, 0x00, 0x07, 0xf5, 0xf3, 0xeb, 0xee, 0xfa, 0x09,
        0x0c, 0xf5, 0x04, 0xff, 0xfb, 0x00, 0xfb, 0xe5, 0xea, 0xdc, 0xdc, 0xb4,
        0xd3, 0x0d, 0xd8, 0xda, 0xe4, 0xfc, 0x06, 0xe3, 0x02, 0xef, 0xe3, 0x07,
        0xed, 0xd4, 0xf1, 0xeb, 0xf4, 0xc1, 0xf9, 0xd0, 0xfb, 0x25, 0xfa, 0xdf,
        0xf1, 0xf3, 0xf0, 0x03, 0xf8, 0x0f, 0xe2, 0xd6, 0xed, 0xfa, 0x01, 0xf2,
        0xd2, 0xfe, 0x19, 0xef, 0xfd, 0xe8, 0xe1, 0xf3, 0xe8, 0xd6, 0xd8, 0xd8,
        0xd8, 0xd2, 0x0c, 0xf2, 0xec, 0xf6, 0xf9, 0xf1, 0x0f, 0xfc, 0xe0, 0x0d,
        0x16, 0x08, 0xe6, 0xeb, 0x02, 0xf2, 0xfb, 0xc8, 0xe7, 0xe9, 0xda, 0xe7,
        0xf4, 0x05, 0x03, 0xd9, 0xfe, 0xea, 0xef, 0x13, 0xcd, 0xd0, 0xeb, 0x12,
        0x29, 0xf1, 0x1c, 0xf6, 0xf7, 0xf6, 0xf4, 0x0c, 0x0b, 0xd5, 0xe6, 0x05,
        0xf7, 0xe2, 0xf1, 0xf2, 0xef, 0xec, 0xfc, 0x0f, 0x06, 0x0c, 0xf9, 0xf9,
        0xec, 0x07, 0xea, 0xea, 0xce, 0xe2, 0xd5, 0xfa, 0xf8, 0x00, 0xdf, 0x0d,
        0xf3, 0xf1, 0xf9, 0xfb, 0xf4, 0xe6, 0xfc, 0x08, 0xe3, 0xeb, 0x02, 0xf4,
        0xda, 0x07, 0x03, 0x1b, 0x2a, 0xf7, 0xe1, 0xda, 0xf4, 0x2a, 0x0d, 0xf7,
        0xea, 0xc7, 0xe7, 0x05, 0x1f, 0xe8, 0xde, 0xfa, 0xfb, 0xe4, 0x0e, 0x27,
        0x0b, 0xe9, 0xd7, 0xea, 0xcd, 0xe8, 0x0b, 0x24, 0xd4, 0x14, 0xf7, 0x15,
        0xca, 0xd4, 0x01, 0xf7, 0x19, 0x27, 0x09, 0xe2, 0x0c, 0xf4, 0xef, 0x24,
        0xfb, 0xfd, 0xc6, 0x03, 0xf3, 0xe9, 0xe2, 0xe8, 0xf0, 0x0d, 0x05, 0x04,
        0xe3, 0xec, 0x12, 0xff, 0xad, 0xdc, 0xd8, 0xd0, 0xf2, 0xe2, 0xf2, 0xd0,
        0xfd, 0xcd, 0xce, 0xde, 0xed, 0xf2, 0xe5, 0xd4, 0xf5, 0x09, 0xe1, 0xe0,
        0xed, 0xe5, 0xd7, 0xe6, 0xff, 0x0a, 0xfa, 0xee, 0xe1, 0xbd, 0x0f, 0xff,
        0xd0, 0xde, 0xce, 0xd3, 0xf7, 0xe8, 0xef, 0xdd, 0x11, 0xca, 0xda, 0xef,
        0xea, 0xe9, 0xfe, 0xdb, 0xf7, 0xd2, 0xfe, 0xc8, 0xfc, 0x0a, 0xf5, 0xff,
        0x0a, 0x13, 0x09, 0xfa, 0xdc, 0xda, 0x17, 0x21, 0xeb, 0xf3, 0xda, 0x11,
        0xe2, 0xf7, 0x21, 0xe3, 0x19, 0x01, 0xde, 0x11, 0xe1, 0xfa, 0xf6, 0xf1,
        0x0d, 0xeb, 0xef, 0xed, 0xdd, 0x04, 0xb8, 0x0e, 0xfe, 0xf1, 0xea, 0xde,
        0xec, 0x13, 0x18, 0xa0, 0xef, 0xfb, 0xe3, 0xfe, 0xf7, 0xc8, 0xcf, 0xe6,
        0xea, 0x43, 0xce, 0xe5, 0xb6, 0xe0, 0xd6, 0xec, 0x33, 0xe2, 0xcb, 0xe0,
        0x0e, 0x00, 0xf3, 0x17, 0x1b, 0xee, 0xf0, 0xf7, 0xb8, 0x02, 0xe3, 0xdb,
        0x19, 0xe8, 0xdb, 0xdd, 0x03, 0xed, 0x06, 0xe1, 0x08, 0x07, 0x0e, 0x0b,
        0xd0, 0xf4, 0xf8, 0xd3, 0x03, 0xf6, 0xe5, 0x08, 0x02, 0x0a, 0xe0, 0x04,
        0xff, 0xfa, 0x13, 0x1f, 0xd7, 0xf4, 0xf1, 0xe7, 0x0b, 0x06, 0x09, 0xfe,
        0x04, 0x12, 0x14, 0x0a, 0x05, 0xdd, 0xfe, 0x04, 0xf5, 0x05, 0xfd, 0xdb,
        0xef, 0xe9, 0xf3, 0x12, 0xec, 0xec, 0xfe, 0xf0, 0xed, 0xf0, 0xf0, 0xeb,
        0x16, 0xfe, 0xfb, 0x17, 0xff, 0x17, 0xeb, 0x0c, 0x0f, 0xeb, 0xf8, 0xe1,
        0xfd, 0x09, 0xfd, 0xfa, 0x06, 0x0c, 0xe9, 0x0d, 0xf4, 0x0d, 0xf1, 0x10,
        0xe2, 0xda, 0x02, 0xdf, 0xc2, 0x08, 0xe0, 0x03, 0x13, 0xe8, 0x0c, 0x1c,
        0xee, 0x18, 0xc3, 0xf5, 0xfb, 0xc8, 0xf3, 0xe2, 0x05, 0x1d, 0x06, 0xf7,
        0x13, 0x10, 0xd9, 0x09, 0x12, 0xcd, 0xf6, 0x06, 0xd4, 0xef, 0x1a, 0x03,
        0x00, 0x03, 0xd4, 0x0b, 0x14, 0x07, 0x21, 0x2b, 0xdb, 0x29, 0x00, 0x11,
        0x07, 0xd1, 0xfd, 0x04, 0x1d, 0x13, 0x12, 0xe2, 0x20, 0x1b, 0xb0, 0x1a,
        0x15, 0xef, 0xd3, 0x17, 0xf7, 0xf1, 0xfb, 0x0e, 0xe5, 0x02, 0xe7, 0xee,
        0xf9, 0xf6, 0x11, 0xf3, 0xf1, 0x00, 0xe6, 0xf7, 0xfb, 0xec, 0xeb, 0xfc,
        0x0c, 0x18, 0xf7, 0xf6, 0xed, 0xfe, 0xfa, 0xfc, 0x14, 0xf7, 0xec, 0xfe,
        0xf0, 0x21, 0xe1, 0xef, 0xea, 0xed, 0xe4, 0xf6, 0xfc, 0xfe, 0xec, 0xde,
        0xf3, 0xf5, 0x12, 0x05, 0x0b, 0x06, 0xfa, 0xf4, 0x05, 0xf7, 0xe5, 0xeb,
        0xf5, 0xf6, 0xf9, 0x0a, 0x12, 0xf5, 0x09, 0xf8, 0xf6, 0xfd, 0x07, 0xf0,
        0xf8, 0xff, 0x0e, 0xe4, 0x11, 0xf5, 0x0f, 0xf3, 0xf8, 0x0c, 0xfb, 0x16,
        0x13, 0x1f, 0x02, 0x02, 0x07, 0xf9, 0x11, 0x17, 0xfb, 0xee, 0x03, 0xf8,
        0x06, 0x05, 0xf5, 0xf2, 0xc3, 0x00, 0xfa, 0x02, 0xe1, 0xdb, 0x17, 0xe0,
        0x14, 0xf4, 0xe7, 0xe7, 0xef, 0x25, 0xfe, 0x17, 0x02, 0xcb, 0xf5, 0xe3,
        0xf5, 0x09, 0xe5, 0x1c, 0xdd, 0x08, 0xfa, 0xed, 0xfb, 0x12, 0x0c, 0x10,
        0xe1, 0xff, 0xf9, 0xdc, 0xd5, 0x01, 0xf7, 0xdd, 0xfd, 0x09, 0xcf, 0xde,
        0xf7, 0x13, 0xe8, 0xee, 0x1b, 0xf0, 0xeb, 0xcf, 0xdf, 0xfe, 0x00, 0x03,
        0xfa, 0x0c, 0x0a, 0xed, 0xff, 0xfa, 0x03, 0xf1, 0xee, 0x03, 0xea, 0xfb,
        0xf1, 0x08, 0xe1, 0x27, 0x06, 0xe5, 0x14, 0x16, 0xec, 0x04, 0x11, 0xf2,
        0x05, 0xd7, 0xe1, 0xf6, 0x0d, 0x2b, 0xfc, 0xed, 0x2e, 0x12, 0xe9, 0x13,
        0x00, 0xdd, 0x06, 0xfe, 0xec, 0xed, 0x03, 0x02, 0x04, 0xf9, 0xff, 0xfa,
        0xfa, 0x14, 0xe9, 0x10, 0xe9, 0xfb, 0x11, 0x09, 0x1b, 0xf3, 0x04, 0xf4,
        0x03, 0x11, 0xeb, 0xfb, 0xfb, 0xfc, 0x0a, 0x09, 0x1e, 0x01, 0x06, 0xe9,
        0xf0, 0xf7, 0xf1, 0x01, 0xf4, 0x01, 0x08, 0xf6, 0x0a, 0x14, 0xf4, 0x00,
        0xf4, 0x29, 0x07, 0xeb, 0x05, 0x03, 0xf2, 0xfd, 0x04, 0x14, 0xf7, 0xe7,
        0x02, 0x00, 0x01, 0xf6, 0x27, 0x06, 0x09, 0xe1, 0xf2, 0x04, 0xf1, 0xec,
        0xff, 0xe9, 0xed, 0xdf, 0xee, 0x0c, 0xec, 0x0d, 0xf3, 0xf7, 0x14, 0xea,
        0xf4, 0xf9, 0xf4, 0xec, 0xf8, 0xf7, 0xf1, 0xec, 0xe4, 0xf4, 0xe4, 0xf7,
        0x29, 0xec, 0x1b, 0xf4, 0xfb, 0x13, 0xda, 0xd6, 0xf4, 0xf8, 0xda, 0xf4,
        0x2b, 0x0b, 0xf7, 0x0f, 0x00, 0x0e, 0x04, 0xde, 0x17, 0xf0, 0xe2, 0x08,
        0xf1, 0x0d, 0xf9, 0xf8, 0xff, 0x07, 0x08, 0xe4, 0x22, 0x04, 0x19, 0x1a,
        0xfe, 0xf0, 0xdd, 0xfa, 0x05, 0x0a, 0xf7, 0xfd, 0x08, 0x05, 0x1b, 0xe7,
        0xf0, 0xe4, 0xe1, 0xe9, 0x03, 0xf9, 0x01, 0x1b, 0xea, 0x12, 0xf7, 0xd0,
        0xfb, 0x02, 0xee, 0xf1, 0x20, 0x08, 0x1a, 0x0d, 0xfd, 0xe2, 0x04, 0xeb,
        0xef, 0xe1, 0x07, 0xc9, 0xe4, 0x09, 0xe8, 0x04, 0xe0, 0x2c, 0xdf, 0x14,
        0x13, 0xfb, 0xde, 0x08, 0xf5, 0xcc, 0x1f, 0x0c, 0xda, 0xc3, 0x10, 0xd4,
        0x00, 0x15, 0xfe, 0xf3, 0xf5, 0xfa, 0xf3, 0xf0, 0xe8, 0xe7, 0xee, 0xeb,
        0x00, 0xfe, 0xea, 0x0b, 0xf6, 0xf5, 0xf7, 0xe3, 0x06, 0x0e, 0xec, 0xeb,
        0xed, 0xf4, 0xf1, 0xf1, 0xfa, 0xe8, 0xff, 0xed, 0x01, 0xea, 0x03, 0x12,
        0x11, 0xf2, 0x0b, 0xf6, 0x07, 0xe5, 0xf0, 0x13, 0xf0, 0x12, 0xfb, 0xda,
        0xed, 0xf4, 0x0a, 0x19, 0x1a, 0xff, 0xf0, 0x0b, 0xee, 0x1d, 0x17, 0xf8,
        0xf6, 0xf7, 0x01, 0xff, 0xfd, 0x10, 0x16, 0x0e, 0x0e, 0xeb, 0xf0, 0xfd,
        0xfe, 0x06, 0xf9, 0xf5, 0xf5, 0x2a, 0xdd, 0x00, 0xe4, 0x02, 0x03, 0xf9,
        0x05, 0xf6, 0x12, 0x0e, 0xfa, 0x1d, 0xf2, 0x0a, 0xfc, 0xe4, 0xf2, 0xd6,
        0x06, 0x0f, 0x0c, 0xdd, 0xe4, 0xcb, 0xf7, 0xdf, 0xe5, 0xbd, 0x0e, 0x18,
        0xb6, 0xeb, 0xb9, 0xed, 0xff, 0x0f, 0xda, 0x04, 0xee, 0x0a, 0xeb, 0xe4,
        0xe5, 0xce, 0xfa, 0xf9, 0xd7, 0xe0, 0x05, 0xd7, 0x0f, 0xfd, 0x2c, 0xe6,
        0x13, 0xf8, 0x19, 0xed, 0x10, 0x15, 0xf6, 0xf8, 0x17, 0xee, 0xf2, 0x0d,
        0xfb, 0x07, 0x11, 0x14, 0x0a, 0x0d, 0x04, 0xfd, 0x1c, 0xfd, 0xf0, 0x0d,
        0xf3, 0x1a, 0xd9, 0xf7, 0xfd, 0xf3, 0x04, 0xf8, 0xfb, 0x0e, 0x00, 0xf4,
        0xdc, 0xf5, 0x25, 0x0e, 0xdb, 0x0b, 0xf0, 0x11, 0x0d, 0x02, 0x1f, 0x17,
        0xff, 0x27, 0x15, 0xe9, 0xfb, 0xdb, 0x1f, 0x09, 0x05, 0xe8, 0x06, 0x10,
        0xda, 0xeb, 0x1e, 0xf6, 0xfd, 0xf8, 0xfd, 0xf9, 0xfc, 0xfd, 0xf2, 0xf4,
        0xec, 0xf0, 0xfb, 0xff, 0xfa, 0xf3, 0xf5, 0xfc, 0xfb, 0x06, 0xf8, 0x01,
        0xf6, 0x00, 0xf0, 0xfd, 0xf7, 0xf4, 0xf1, 0xf5, 0xed, 0xf7, 0x00, 0xed,
        0xf9, 0xfb, 0xff, 0xf9, 0xe9, 0xeb, 0x06, 0xfd, 0xfa, 0xff, 0x01, 0x07,
        0xec, 0xfe, 0xfb, 0xfb, 0x00, 0xfc, 0xfc, 0x02, 0xf7, 0x0d, 0x03, 0xe9,
        0xed, 0xf1, 0xff, 0xff, 0x0a, 0xf3, 0xfd, 0xfe, 0xfd, 0x01, 0xff, 0x00,
        0xfd, 0xfb, 0x05, 0xfe, 0xfe, 0x0a, 0xff, 0xf8, 0xdf, 0xf6, 0xfb, 0xff,
        0xfb, 0x01, 0xfb, 0xf3, 0x00, 0xf6, 0xfe, 0xf7, 0x01, 0xf9, 0xfe, 0xf8,
        0xfe, 0x01, 0xf4, 0xfe, 0xe1, 0x29, 0xd9, 0xbc, 0xda, 0xe3, 0x03, 0xd5,
        0xeb, 0xdd, 0xc8, 0xdf, 0xd4, 0x02, 0x0a, 0xff, 0x17, 0xd3, 0xda, 0xe1,
        0xde, 0xc7, 0xc4, 0xfb, 0xe1, 0xe9, 0xf5, 0xf3, 0xfb, 0x0c, 0xfb, 0xca,
        0xd7, 0x07, 0xda, 0xd1, 0xd6, 0x10, 0xf0, 0xfd, 0x1e, 0xef, 0xfb, 0xfb,
        0xe0, 0xf4, 0xd6, 0xd4, 0x0d, 0xa7, 0xb8, 0xb2, 0xf2, 0x09, 0xb8, 0xf4,
        0x06, 0x0a, 0xef, 0x00, 0x0f, 0xdc, 0xdb, 0xe0, 0x1c, 0xe2, 0x12, 0x0c,
        0xfb, 0x0c, 0xde, 0x0e, 0x0d, 0xcd, 0xf8, 0x2a, 0xe6, 0x0e, 0xe9, 0xf0,
        0xdd, 0xd7, 0x11, 0x17, 0x09, 0x04, 0xf1, 0x0b, 0x02, 0x16, 0xe8, 0xfb,
        0x2b, 0x24, 0xcc, 0x07, 0xfa, 0xc5, 0x15, 0x08, 0x02, 0x02, 0xfe, 0x34,
        0x1a, 0xe5, 0x12, 0x02, 0xf1, 0xfc, 0xda, 0x07, 0xcb, 0x11, 0x14, 0x0f,
        0xff, 0xe2, 0x1f, 0xfc, 0x0f, 0x01, 0x03, 0xff, 0xe7, 0x09, 0xfa, 0xf6,
        0xe1, 0xc8, 0xdd, 0xe1, 0xe7, 0x01, 0xdc, 0xf7, 0x1f, 0x04, 0xf0, 0xe5,
        0x03, 0xe2, 0xf1, 0xeb, 0xed, 0x14, 0xd9, 0xf6, 0xd4, 0x02, 0x23, 0xf7,
        0xf8, 0x01, 0xf6, 0x03, 0x23, 0x10, 0xf3, 0x10, 0xf7, 0x02, 0xe9, 0x20,
        0xd8, 0xf8, 0x0f, 0xe5, 0xfb, 0x1d, 0x10, 0xe5, 0x1e, 0xf5, 0x1f, 0x06,
        0xfb, 0x03, 0x0d, 0x03, 0xd2, 0xff, 0xfa, 0x05, 0x0a, 0x1d, 0x17, 0xe4,
        0x14, 0x1f, 0x02, 0x06, 0xfc, 0x0c, 0x09, 0xf0, 0xff, 0x08, 0x0d, 0xdb,
        0xfd, 0x0a, 0x09, 0xfb, 0x0b, 0x1b, 0x09, 0xff, 0x1f, 0xf2, 0xfa, 0xfd,
        0x03, 0x1a, 0x04, 0x0b, 0xeb, 0x01, 0x03, 0x0d, 0x05, 0xfb, 0x0f, 0xf0,
        0x0b, 0xf5, 0xe8, 0xee, 0x0a, 0xeb, 0x01, 0xe8, 0xe9, 0xf5, 0xf0, 0xf6,
        0xe9, 0xf5, 0xf4, 0xf9, 0xfd, 0x0c, 0xf4, 0x03, 0xf3, 0x0d, 0xef, 0xf5,
        0xf5, 0xf0, 0xe8, 0xed, 0x10, 0x0b, 0x16, 0xf8, 0xf3, 0xf0, 0xdb, 0x07,
        0xec, 0xe5, 0xe8, 0xef, 0xea, 0xe8, 0xef, 0xf6, 0xdd, 0xf1, 0x05, 0xe6,
        0xf9, 0xe6, 0xdd, 0xf2, 0xea, 0x01, 0xea, 0xda, 0xe9, 0xe2, 0xc8, 0xf4,
        0x11, 0xe7, 0xfa, 0xfd, 0xfe, 0xf9, 0xf8, 0x13, 0x02, 0xf3, 0xf5, 0xf7,
        0x0e, 0xfb, 0x0f, 0xe7, 0xfd, 0xee, 0xe7, 0xd0, 0xe4, 0xed, 0xfb, 0xfa,
        0xfa, 0x0b, 0xf6, 0xf2, 0x01, 0x0e, 0xe7, 0xf7, 0x11, 0x17, 0xf5, 0x15,
        0xff, 0xf7, 0x0b, 0xe9, 0xfe, 0x0b, 0x0e, 0x0b, 0xec, 0xf8, 0xe3, 0xfd,
        0xf6, 0x0c, 0xee, 0x13, 0xed, 0x0b, 0xf0, 0x0b, 0x0d, 0xf6, 0xef, 0x00,
        0xd7, 0xd5, 0x1f, 0x04, 0xeb, 0x06, 0xfc, 0xf4, 0xff, 0x05, 0xda, 0xfc,
        0xe9, 0xf1, 0x02, 0xe2, 0x06, 0x01, 0x07, 0xee, 0x04, 0x0e, 0xf6, 0xf3,
        0x01, 0xf0, 0xfd, 0xd5, 0xf1, 0x02, 0x07, 0x09, 0xfc, 0xf9, 0xf6, 0xf1,
        0x0a, 0xf4, 0xee, 0xf9, 0x18, 0x1a, 0xd6, 0xe3, 0xe9, 0xe1, 0xd9, 0x05,
        0xfc, 0xf2, 0xf4, 0xfb, 0xfa, 0xe5, 0x2c, 0xf1, 0x0a, 0x04, 0xe6, 0x05,
        0xe3, 0xd6, 0xdf, 0xe2, 0xe8, 0xf4, 0xf7, 0xfb, 0xfc, 0x15, 0xf2, 0x0a,
        0xfc, 0xe5, 0x11, 0xd4, 0xe9, 0x12, 0xd5, 0x01, 0x0a, 0xf5, 0xd6, 0x07,
        0xd7, 0xf2, 0xdd, 0xf7, 0x1b, 0xdc, 0x09, 0xf3, 0x0f, 0xef, 0x09, 0xec,
        0xff, 0xf6, 0xed, 0x07, 0x0d, 0xfc, 0xdf, 0xf0, 0x00, 0xde, 0x06, 0xfb,
        0x00, 0x0a, 0xb8, 0x15, 0x02, 0xfa, 0x08, 0x24, 0xcf, 0x14, 0xbc, 0xee,
        0xf4, 0xc6, 0xf7, 0xef, 0x07, 0xf7, 0x14, 0x02, 0x0a, 0x06, 0xc5, 0x06,
        0x16, 0xcd, 0xd6, 0xf6, 0xf8, 0x23, 0xdd, 0x0e, 0x14, 0x0c, 0x17, 0xeb,
        0x09, 0x13, 0x22, 0xea, 0x16, 0xf4, 0x16, 0x04, 0xe5, 0x20, 0xfc, 0xf5,
        0xe5, 0x23, 0xfd, 0xfc, 0xe6, 0x00, 0x3b, 0x02, 0xfc, 0x09, 0x2f, 0xfa,
        0xe0, 0x0c, 0xf4, 0x10, 0xee, 0xf1, 0xfe, 0x22, 0x02, 0xfe, 0x07, 0xe8,
        0xde, 0x17, 0xea, 0x10, 0x01, 0x01, 0xf3, 0xee, 0x04, 0x07, 0xf2, 0xf5,
        0xf1, 0xf1, 0x0e, 0xf4, 0xf7, 0xd7, 0x06, 0x00, 0xfc, 0x10, 0xf6, 0xf9,
        0xf6, 0x05, 0x07, 0x1b, 0xf4, 0xfa, 0xfd, 0x03, 0x12, 0xf9, 0x07, 0x13,
        0xed, 0x39, 0xea, 0x0a, 0x10, 0x04, 0xfa, 0xe8, 0xfc, 0xec, 0x1a, 0x22,
        0xd0, 0xdc, 0x2d, 0x01, 0xe5, 0xf9, 0x02, 0xeb, 0xf8, 0x03, 0xf9, 0x17,
        0xfe, 0xff, 0x09, 0xf8, 0xfb, 0xff, 0x09, 0xf6, 0x21, 0x0f, 0xde, 0x03,
        0xe8, 0x0d, 0x16, 0x01, 0xf1, 0xf7, 0xde, 0xfa, 0x17, 0xfc, 0x19, 0xfe,
        0xdb, 0xfe, 0x08, 0xdb, 0xe3, 0x0b, 0xf9, 0xf1, 0xde, 0xf2, 0x1b, 0xeb,
        0xf3, 0x04, 0xf5, 0xef, 0x17, 0x04, 0xf0, 0x00, 0xee, 0xef, 0x05, 0xf0,
        0xf8, 0xf6, 0xf1, 0x03, 0xfa, 0x0e, 0x01, 0xdd, 0xe6, 0xf8, 0xf7, 0xdd,
        0xd1, 0x10, 0xfd, 0xee, 0xfb, 0xfb, 0x17, 0xf2, 0x01, 0xf8, 0x07, 0xeb,
        0x10, 0x0e, 0xe8, 0x02, 0xea, 0xe7, 0xfa, 0xe9, 0xe2, 0xe5, 0xf4, 0xe9,
        0xeb, 0xf9, 0xfc, 0xf5, 0xeb, 0xfb, 0xf3, 0xd6, 0xea, 0xeb, 0x05, 0xf1,
        0xf3, 0x02, 0x10, 0x21, 0xf0, 0x27, 0x1a, 0xf7, 0x03, 0xf8, 0xfd, 0x07,
        0x03, 0x18, 0x20, 0xfb, 0xf2, 0xef, 0xe6, 0x0c, 0xe9, 0xde, 0x02, 0x23,
        0x17, 0xfd, 0xe9, 0x04, 0x03, 0xf5, 0xf0, 0xf5, 0xf3, 0x1b, 0xfe, 0xdc,
        0xe6, 0xf7, 0x26, 0x0d, 0x25, 0xea, 0x06, 0x11, 0xd5, 0x19, 0x11, 0xd2,
        0xfa, 0x03, 0xeb, 0xfd, 0xd4, 0xfb, 0x12, 0x0a, 0x05, 0xdb, 0x04, 0x08,
        0x09, 0xe9, 0xdd, 0xf6, 0xfd, 0x1b, 0xe5, 0xc9, 0xd4, 0x06, 0x29, 0xfd,
        0x1d, 0xdc, 0x0a, 0x15, 0xff, 0x03, 0xf4, 0x12, 0x04, 0xfc, 0xff, 0xe1,
        0xd6, 0x04, 0x09, 0xe5, 0xf5, 0x18, 0xff, 0xd3, 0xdd, 0xc1, 0xf1, 0xf3,
        0xd0, 0xe5, 0xd3, 0xf5, 0xee, 0xf9, 0x0b, 0x04, 0xf7, 0xf0, 0xf3, 0xea,
        0xef, 0xcb, 0xe6, 0xee, 0xda, 0xe6, 0xfc, 0xeb, 0xfe, 0xf7, 0xe2, 0xd5,
        0xe7, 0xde, 0xf3, 0xda, 0xe1, 0xfb, 0xf5, 0xf7, 0x17, 0xf2, 0x0c, 0xfc,
        0xcc, 0x02, 0x03, 0x02, 0xf5, 0xee, 0xe6, 0xaa, 0xf9, 0x03, 0xeb, 0xff,
        0xde, 0xfc, 0xd8, 0xeb, 0x1c, 0x01, 0xe8, 0xdc, 0xc9, 0xf4, 0x05, 0x00,
        0xfa, 0xf2, 0x01, 0x09, 0x0f, 0x37, 0x09, 0x11, 0x0e, 0xfa, 0xfa, 0x1b,
        0xf7, 0x16, 0xed, 0x05, 0xe7, 0x0f, 0xfe, 0x12, 0xef, 0xed, 0x14, 0x31,
        0x10, 0xf7, 0x16, 0xe9, 0x0b, 0xeb, 0x08, 0x0f, 0xe2, 0x07, 0xbf, 0xdd,
        0xf2, 0xf4, 0xfe, 0xf6, 0xf9, 0xf0, 0xf8, 0xcc, 0x1e, 0xd9, 0x1a, 0xe9,
        0xfd, 0xe2, 0xf7, 0xe5, 0x17, 0x03, 0x05, 0xfe, 0xec, 0xf6, 0xc0, 0x03,
        0xc3, 0xdd, 0xdc, 0x09, 0xe4, 0xe0, 0xce, 0xd9, 0x11, 0xf4, 0x0f, 0xe7,
        0xf8, 0xd1, 0xd3, 0xf7, 0x17, 0x13, 0xff, 0xce, 0xfc, 0x10, 0xeb, 0xd0,
        0xda, 0x04, 0xf3, 0xfd, 0x06, 0xdc, 0xfe, 0x14, 0xcc, 0xec, 0xe4, 0x08,
        0xed, 0xd1, 0xe9, 0x0e, 0x18, 0x0c, 0x05, 0x06, 0xfb, 0xd4, 0xd5, 0xe1,
        0x05, 0xed, 0x00, 0xe1, 0xf7, 0x0f, 0xe3, 0xcb, 0x05, 0x00, 0xfe, 0xeb,
        0x03, 0xf2, 0x0d, 0x18, 0xfa, 0x0f, 0xcc, 0xd9, 0xe6, 0xea, 0xe0, 0x16,
        0xf7, 0xfb, 0xf6, 0xef, 0x01, 0xe7, 0xdd, 0xf9, 0x0c, 0xc5, 0xe2, 0xef,
        0xf1, 0xfb, 0xd4, 0xe5, 0xf8, 0x01, 0xd0, 0xf8, 0xfd, 0xfa, 0xed, 0xe0,
        0xdb, 0xc9, 0xdd, 0xf9, 0xbe, 0xfa, 0xd6, 0xe8, 0x17, 0xe5, 0x05, 0x10,
        0xf2, 0xee, 0xbc, 0xf2, 0xf2, 0xfb, 0xf1, 0xd9, 0xf7, 0x0e, 0xfd, 0xf8,
        0x02, 0xf3, 0xd7, 0xfc, 0x16, 0xe0, 0xfd, 0xef, 0x02, 0xcb, 0x1d, 0xe8,
        0xf9, 0x01, 0x08, 0x02, 0x26, 0x28, 0x14, 0x25, 0xfa, 0x10, 0xfd, 0x1b,
        0x06, 0x0e, 0x07, 0xff, 0x07, 0x0b, 0x21, 0x0d, 0x19, 0x05, 0x18, 0x19,
        0x07, 0x21, 0x14, 0x27, 0xff, 0x17, 0xe9, 0x00, 0xda, 0xf5, 0xf6, 0x02,
        0xed, 0x03, 0x17, 0xde, 0xf7, 0x03, 0x17, 0xfd, 0xf5, 0xcc, 0xf7, 0xdf,
        0xc6, 0x25, 0xff, 0x07, 0xde, 0xe0, 0xfd, 0xf5, 0x12, 0xfe, 0x08, 0xf3,
        0xfa, 0x15, 0xf6, 0xe4, 0xcd, 0xd4, 0xfb, 0xfb, 0x08, 0xfe, 0x11, 0x12,
        0x02, 0x15, 0x07, 0x01, 0x1a, 0xff, 0x02, 0x03, 0xef, 0x17, 0xf6, 0x08,
        0xfd, 0xfa, 0x05, 0x0d, 0xff, 0x08, 0x13, 0xe9, 0xec, 0x00, 0xc9, 0x06,
        0xe6, 0xe1, 0x09, 0xf5, 0xfa, 0x14, 0xf6, 0xee, 0x07, 0xee, 0x10, 0xfa,
        0x11, 0x13, 0xdc, 0xea, 0xe9, 0x22, 0x18, 0xf3, 0xe0, 0xed, 0xf6, 0x09,
        0xec, 0xed, 0x19, 0x04, 0xf9, 0xe0, 0xed, 0xde, 0xee, 0x08, 0xf5, 0xde,
        0x11, 0x07, 0x00, 0x15, 0x01, 0x14, 0x06, 0x06, 0x22, 0xfc, 0xfc, 0x0f,
        0xd5, 0xe9, 0xf4, 0xff, 0x02, 0xfc, 0xfb, 0x18, 0x22, 0x31, 0xfb, 0xf4,
        0xf5, 0x1b, 0xeb, 0xea, 0x13, 0x02, 0xf6, 0xf0, 0xf5, 0x1c, 0x13, 0x03,
        0xf7, 0x0b, 0x00, 0x02, 0x47, 0x0d, 0xe4, 0x0c, 0xdb, 0x23, 0xf2, 0xf4,
        0xfd, 0xfa, 0xfb, 0x15, 0x0f, 0x1a, 0x14, 0x03, 0xe9, 0x08, 0xd7, 0xf3,
        0xd9, 0xd9, 0xf5, 0xf8, 0xfa, 0x05, 0xff, 0x01, 0x01, 0x09, 0x02, 0x0d,
        0x1a, 0x03, 0xcb, 0xea, 0xcc, 0x0a, 0xf0, 0xdd, 0xd9, 0xe2, 0xf7, 0xf3,
        0x0b, 0xe0, 0xff, 0xfe, 0x04, 0x31, 0xe3, 0xa9, 0xd5, 0xbe, 0xcf, 0xf8,
        0xe0, 0xec, 0xe5, 0xe2, 0xd7, 0xc2, 0x18, 0xe7, 0xf4, 0xea, 0xf2, 0xeb,
        0xd0, 0xdd, 0xd2, 0xd3, 0xd7, 0xde, 0xd1, 0xdc, 0x00, 0xe6, 0x07, 0xdb,
        0xf0, 0xda, 0x00, 0x06, 0xe0, 0xf3, 0xf8, 0x00, 0x0a, 0xf0, 0x10, 0x1e,
        0xf9, 0x0d, 0xd6, 0x00, 0xf4, 0x11, 0xea, 0xcc, 0x07, 0xfe, 0x06, 0x00,
        0xe2, 0x0c, 0xe4, 0xeb, 0x03, 0xfb, 0xda, 0x0e, 0xe8, 0xee, 0xd7, 0x09,
        0xc5, 0xf2, 0x18, 0xf2, 0x20, 0x20, 0x22, 0xfa, 0xf6, 0x18, 0x0d, 0x04,
        0xfa, 0x01, 0x05, 0x04, 0xd1, 0x2b, 0xca, 0x35, 0xfa, 0x09, 0x19, 0x2b,
        0x13, 0x23, 0x08, 0x19, 0xe6, 0xe7, 0x00, 0xf3, 0x02, 0x17, 0x0f, 0xfc,
        0x08, 0x1a, 0x1b, 0x09, 0x07, 0x22, 0xdb, 0x14, 0xfd, 0x0b, 0x03, 0xf8,
        0x10, 0xf8, 0x13, 0x14, 0xfd, 0x03, 0x07, 0x1b, 0x00, 0x1f, 0xf6, 0x10,
        0xed, 0xe4, 0xc7, 0xeb, 0x0c, 0xfa, 0x1a, 0xda, 0xca, 0xff, 0xeb, 0xbc,
        0x09, 0xf8, 0xdd, 0xfa, 0x09, 0x11, 0x09, 0xe0, 0xf6, 0xfb, 0xe0, 0x01,
        0xe6, 0xe9, 0x05, 0xf9, 0x0c, 0x1d, 0x10, 0xde, 0xde, 0xd1, 0x99, 0xe3,
        0xd3, 0xc3, 0xde, 0x04, 0xb9, 0xd4, 0xe3, 0xc0, 0xcf, 0xdf, 0x09, 0xe1,
        0x00, 0xb3, 0xb3, 0xc6, 0xb2, 0xff, 0xc5, 0xd2, 0xaf, 0xa6, 0xb3, 0xb0,
        0x1c, 0xcc, 0xfa, 0xc7, 0xd3, 0x10, 0xf3, 0x0c, 0xea, 0xd4, 0x01, 0xf2,
        0x04, 0xf4, 0x05, 0xf2, 0xdc, 0xd9, 0x15, 0xe1, 0xf8, 0xe7, 0xf8, 0xe2,
        0xe7, 0x10, 0xe7, 0xe6, 0xf8, 0xe8, 0x00, 0xf4, 0x09, 0xfb, 0xcd, 0xfd,
        0x02, 0xfe, 0xf5, 0x0b, 0xe2, 0xe3, 0x04, 0xe8, 0xf7, 0x14, 0xe4, 0xf6,
        0x0a, 0x12, 0xf9, 0x1f, 0xf2, 0x04, 0x0e, 0x0a, 0xdb, 0xfb, 0x0a, 0x08,
        0xe4, 0x11, 0x11, 0xeb, 0xed, 0x1b, 0xe7, 0x01, 0xe1, 0x05, 0x10, 0x14,
        0xe1, 0xf2, 0x01, 0xfd, 0x05, 0x04, 0x16, 0x3a, 0xfc, 0x13, 0xc3, 0x18,
        0x0e, 0xe9, 0xe8, 0xe5, 0x13, 0x1b, 0x36, 0xff, 0xf7, 0xe9, 0xff, 0x09,
        0x07, 0xd5, 0xe8, 0x08, 0x06, 0xdc, 0x12, 0x04, 0x01, 0x05, 0xf0, 0xf2,
        0xf3, 0xe6, 0x2c, 0xfa, 0xf1, 0xed, 0xf7, 0xfa, 0xee, 0xee, 0x00, 0x16,
        0xff, 0x10, 0xee, 0xf7, 0xfa, 0xf4, 0xde, 0xf1, 0x0c, 0x00, 0x15, 0x12,
        0xf9, 0x18, 0x1b, 0x11, 0xfc, 0x0e, 0xee, 0x1a, 0x24, 0xdd, 0x11, 0x1c,
        0xfa, 0x17, 0xdf, 0x0a, 0xfc, 0xfb, 0x05, 0x0e, 0x03, 0x10, 0x11, 0xf0,
        0x22, 0x02, 0x03, 0x20, 0x03, 0xf7, 0x01, 0x1b, 0xf8, 0xf4, 0xc2, 0xd1,
        0xcb, 0xe1, 0x03, 0xc5, 0xbd, 0xfc, 0xdf, 0xc9, 0xc9, 0x00, 0xf3, 0xe4,
        0x0c, 0xf3, 0xbe, 0xf1, 0xdc, 0xd9, 0xcf, 0xc7, 0x8d, 0x9f, 0xef, 0xbb,
        0xd0, 0xe2, 0xec, 0xaf, 0xf8, 0xda, 0x16, 0xf6, 0x0a, 0x0b, 0x0d, 0xe3,
        0x10, 0xf1, 0x15, 0x09, 0xfe, 0x14, 0xf6, 0x17, 0x07, 0xe9, 0x09, 0x00,
        0x17, 0x02, 0x09, 0x1f, 0xed, 0xf6, 0xf1, 0x06, 0xf8, 0xef, 0xfb, 0x0a,
        0xf9, 0x1b, 0x0c, 0x24, 0xfd, 0xf7, 0x0f, 0x02, 0x1f, 0xfe, 0x19, 0xfd,
        0x04, 0xff, 0xe8, 0x05, 0x06, 0x04, 0x0b, 0x21, 0xfe, 0x28, 0x0c, 0x07,
        0x17, 0x0e, 0x0d, 0x06, 0x10, 0x16, 0x0b, 0x27, 0xd7, 0xf9, 0x91, 0xf3,
        0xdc, 0xb4, 0xec, 0xe2, 0xb4, 0x09, 0xeb, 0xc1, 0xa6, 0xc5, 0xd4, 0xc2,
        0xff, 0xc3, 0x8d, 0xe1, 0xbd, 0xfe, 0xc8, 0xc1, 0xb4, 0x92, 0xc4, 0xc8,
        0xf6, 0xbc, 0xda, 0xd6, 0xe4, 0x07, 0xcc, 0xcb, 0xc2, 0xd0, 0xc8, 0xdf,
        0x09, 0x15, 0xf9, 0xfe, 0xf2, 0xf0, 0xe0, 0xef, 0x0b, 0xa8, 0xcc, 0xde,
        0xb5, 0x0b, 0xe4, 0xe3, 0xfd, 0x05, 0xd7, 0xd8, 0x0b, 0xcf, 0xfc, 0x1c,
        0x15, 0x03, 0xf9, 0x05, 0xe6, 0x01, 0xf1, 0xfc, 0x04, 0xe4, 0x0b, 0x04,
        0x17, 0x04, 0x33, 0x0b, 0x26, 0xec, 0xf2, 0xe1, 0xcb, 0x33, 0xec, 0xee,
        0x15, 0x1c, 0xff, 0xed, 0x11, 0xf2, 0xe1, 0x1e, 0xf6, 0x06, 0x0c, 0x0e,
        0xec, 0x02, 0x16, 0xf2, 0xf9, 0x07, 0xfb, 0xe6, 0xfa, 0x1a, 0x00, 0x25,
        0x0c, 0x19, 0x15, 0xfb, 0xdb, 0x0f, 0x1f, 0xfc, 0xfb, 0xeb, 0x15, 0xf3,
        0x04, 0x2f, 0x09, 0xec, 0xf5, 0xfb, 0xe4, 0x22, 0xd4, 0xb9, 0xe7, 0xe9,
        0xf6, 0xe1, 0x08, 0xdf, 0xef, 0xf4, 0xf5, 0xfb, 0xf3, 0xd6, 0xeb, 0xf8,
        0xc0, 0x0c, 0xbe, 0xe2, 0xce, 0xe2, 0xd7, 0xde, 0x03, 0xd8, 0x16, 0x03,
        0xe2, 0xef, 0xf7, 0x03, 0xbe, 0xea, 0x02, 0xf3, 0x03, 0xf7, 0x17, 0xe9,
        0xed, 0x33, 0xfd, 0x18, 0x02, 0xe1, 0xf0, 0x06, 0xe1, 0x23, 0x06, 0x27,
        0xf6, 0x10, 0xf5, 0x1e, 0x1a, 0x17, 0x08, 0xf4, 0xef, 0xfa, 0xf3, 0x12,
        0xdb, 0xd7, 0x13, 0xed, 0xf6, 0x24, 0x18, 0xd8, 0x13, 0x11, 0xe5, 0x21,
        0x0c, 0x0d, 0xf1, 0x06, 0xa9, 0x16, 0x14, 0xfb, 0xd3, 0xf9, 0x04, 0xfb,
        0xf8, 0x0e, 0x0c, 0x13, 0x10, 0xfd, 0xd2, 0xfd, 0xee, 0xf0, 0xcb, 0xe4,
        0xd8, 0xe0, 0x2b, 0x0b, 0x08, 0xf9, 0xca, 0xdc, 0xe2, 0xd9, 0xec, 0x0d,
        0x02, 0x2d, 0xeb, 0xea, 0xd6, 0x06, 0xd7, 0x02, 0x34, 0x00, 0x12, 0xe6,
        0x09, 0xca, 0x1a, 0x2f, 0x15, 0x0a, 0xf0, 0xea, 0xe1, 0xef, 0x11, 0x0d,
        0xeb, 0xe3, 0xda, 0xed, 0xe9, 0x15, 0x13, 0xf1, 0x10, 0x10, 0xeb, 0x01,
        0xe4, 0xe5, 0xf3, 0xfd, 0x0f, 0xf8, 0xe6, 0x00, 0x1c, 0xf9, 0xfd, 0x06,
        0x06, 0xf5, 0x07, 0x28, 0xfc, 0x1c, 0x14, 0x22, 0xea, 0x00, 0x07, 0x29,
        0x04, 0x0e, 0xec, 0x22, 0xe1, 0xfc, 0x03, 0x0c, 0xf2, 0xe5, 0xfa, 0xf8,
        0x14, 0x04, 0xf8, 0xf4, 0x0b, 0xf1, 0x07, 0xff, 0x11, 0x01, 0xec, 0xde,
        0xfb, 0xe6, 0x0a, 0xff, 0xf5, 0xf0, 0xeb, 0xdc, 0x0f, 0xee, 0xfc, 0xf2,
        0xf3, 0x08, 0xfd, 0x04, 0xe2, 0x02, 0xe7, 0xf1, 0xf2, 0xf2, 0x01, 0x07,
        0xff, 0xf4, 0xfd, 0x09, 0x0a, 0x01, 0xed, 0xf0, 0x08, 0x1e, 0xe7, 0xf9,
        0xfa, 0x15, 0x08, 0xd9, 0x10, 0xff, 0xf6, 0xf2, 0xea, 0x23, 0x0e, 0xf6,
        0xf1, 0x07, 0xfc, 0xf3, 0x19, 0xf5, 0x0c, 0x05, 0xef, 0x00, 0xf1, 0xe1,
        0xf6, 0xfd, 0xe8, 0xec, 0xf4, 0x02, 0x0c, 0x05, 0xed, 0xea, 0xf3, 0xd2,
        0x0f, 0x0a, 0xe1, 0xfb, 0xf3, 0x12, 0xfb, 0xe6, 0xf9, 0xd5, 0x08, 0xff,
        0x0f, 0xcf, 0x07, 0xf3, 0x14, 0xfa, 0xf8, 0xee, 0x03, 0xe2, 0xf6, 0xf0,
        0xe6, 0x06, 0x06, 0x08, 0xe8, 0x25, 0x06, 0xfe, 0x20, 0xe1, 0xec, 0x03,
        0x0b, 0x0a, 0x05, 0xf3, 0xe9, 0xf4, 0xfd, 0x07, 0x12, 0xe8, 0xfc, 0xfb,
        0x0b, 0xff, 0xe7, 0xf8, 0xff, 0xf0, 0x08, 0xeb, 0xe6, 0x00, 0xed, 0xec,
        0xe9, 0x14, 0x07, 0x06, 0x11, 0xfd, 0x01, 0x03, 0xee, 0x00, 0xee, 0xfd,
        0xf6, 0xfa, 0x02, 0xfe, 0x05, 0xe6, 0xef, 0xf7, 0x0e, 0x01, 0xdf, 0xf4,
        0xf9, 0xea, 0xfd, 0xed, 0x04, 0xe7, 0xff, 0xeb, 0xe7, 0x06, 0xfd, 0x06,
        0x13, 0xfc, 0xfb, 0x0b, 0xf1, 0xfd, 0xf4, 0x08, 0xf6, 0xf1, 0x02, 0xf2,
        0xf4, 0xf3, 0xe4, 0xeb, 0xf9, 0x15, 0xb8, 0xe7, 0xfd, 0xd2, 0xe4, 0xe6,
        0x03, 0x1a, 0xe8, 0xf8, 0xfc, 0xe0, 0xf3, 0xc8, 0xe5, 0xee, 0xe7, 0xe4,
        0xef, 0xe8, 0xd5, 0xf9, 0xce, 0xfc, 0xea, 0xdc, 0xfc, 0xee, 0xec, 0xe5,
        0x02, 0xe3, 0xfa, 0x1a, 0x17, 0x0f, 0x15, 0x02, 0xde, 0xf3, 0xe4, 0xf3,
        0x03, 0xf0, 0xe4, 0xfb, 0xf7, 0x15, 0x20, 0xe8, 0x0b, 0x04, 0x04, 0xfd,
        0xf3, 0xeb, 0x25, 0x32, 0xe3, 0xd8, 0xf9, 0x02, 0xe6, 0xff, 0xd8, 0xf0,
        0xe9, 0x10, 0x03, 0xec, 0xea, 0xf5, 0x11, 0xfb, 0xe8, 0xe8, 0x1c, 0xf0,
        0x0a, 0x13, 0xef, 0xdb, 0x04, 0xdc, 0xf6, 0x09, 0xd5, 0xd9, 0x0f, 0x11,
        0xeb, 0xe1, 0x04, 0x0c, 0x0a, 0xe9, 0xe9, 0xfa, 0x09, 0x26, 0xf7, 0x0e,
        0x11, 0xfc, 0x1b, 0xd9, 0x0d, 0xba, 0x06, 0xe5, 0xe7, 0x07, 0xc8, 0xf1,
        0xf6, 0x07, 0xd2, 0x04, 0x05, 0x0b, 0x29, 0xd3, 0x05, 0xde, 0x1f, 0xf0,
        0xfa, 0x08, 0xf1, 0xfa, 0xf3, 0xfc, 0xfb, 0x27, 0x05, 0x0d, 0xdc, 0xc3,
        0xfb, 0xcf, 0xe8, 0xe8, 0xef, 0x15, 0xd8, 0xed, 0xda, 0xe6, 0xc2, 0xe5,
        0xfe, 0xf6, 0x07, 0xdc, 0x03, 0xee, 0x19, 0xef, 0xfc, 0xfd, 0x1c, 0xff,
        0x07, 0x0b, 0xfd, 0x1f, 0x06, 0xf5, 0x14, 0x17, 0x28, 0xfa, 0x1c, 0x0c,
        0x14, 0x0e, 0xfa, 0x21, 0xf8, 0x06, 0xfc, 0x06, 0x12, 0xec, 0x0f, 0x15,
        0x29, 0x0d, 0x11, 0x15, 0xfb, 0x05, 0xdd, 0xcc, 0xc7, 0xaa, 0xe6, 0x32,
        0xe7, 0xfe, 0xfe, 0xf4, 0xfa, 0x10, 0x0e, 0x08, 0x0c, 0x09, 0xda, 0xfc,
        0xfa, 0x07, 0xdf, 0x05, 0xfe, 0xe1, 0xf5, 0xeb, 0x09, 0xce, 0xdb, 0x04,
        0xed, 0xe3, 0xdd, 0xf1, 0xdc, 0xe4, 0xef, 0x22, 0xf5, 0xec, 0xf1, 0xfd,
        0xd7, 0x18, 0x08, 0xee, 0xfc, 0xfc, 0xcd, 0xed, 0x06, 0x0b, 0x15, 0xf0,
        0x09, 0xc4, 0xda, 0x0b, 0xf7, 0xec, 0xe6, 0x05, 0x0b, 0x0c, 0xe9, 0x07,
        0xd2, 0xc8, 0xeb, 0xee, 0xe3, 0x40, 0xe0, 0xf0, 0x14, 0x01, 0x06, 0x14,
        0x25, 0x16, 0xf3, 0xd5, 0xe6, 0xf6, 0xfd, 0xf8, 0xec, 0xb7, 0x1d, 0x02,
        0xf1, 0x1c, 0xe7, 0x17, 0xe6, 0xe8, 0xfc, 0xe9, 0xf8, 0xea, 0xf8, 0x0c,
        0x0c, 0xfd, 0xdc, 0x04, 0x0a, 0x0a, 0xf0, 0xff, 0x07, 0x00, 0x1a, 0xb7,
        0x06, 0xf2, 0x0e, 0xed, 0xfe, 0xe1, 0xf7, 0x17, 0xec, 0xee, 0xfc, 0x06,
        0xde, 0xf4, 0xde, 0xf3, 0xf4, 0xd9, 0xf8, 0x14, 0xf8, 0x0c, 0xed, 0xfa,
        0xed, 0x00, 0x0c, 0xf0, 0x1e, 0xf2, 0xed, 0xdd, 0xf2, 0xeb, 0xdd, 0xf1,
        0xfc, 0xe0, 0x00, 0xe8, 0xd7, 0xf7, 0x1b, 0xcd, 0xd1, 0xf3, 0xf3, 0xfa,
        0xdd, 0xd4, 0xe9, 0x1a, 0xf8, 0x31, 0xd4, 0x07, 0x0e, 0x0f, 0x01, 0xf2,
        0x07, 0x17, 0xf4, 0xd9, 0x12, 0xd1, 0x05, 0xfc, 0xf6, 0xe1, 0x0b, 0x28,
        0x07, 0xdf, 0xf9, 0x13, 0xe3, 0x13, 0xd7, 0xdb, 0xea, 0xe1, 0xe5, 0xee,
        0xbe, 0xfb, 0xf4, 0x0d, 0xee, 0x0b, 0x17, 0xe7, 0x00, 0xf9, 0xdf, 0xf7,
        0xe1, 0xf6, 0xf7, 0xe9, 0xa6, 0xc2, 0xe4, 0xdd, 0xfb, 0xf1, 0x01, 0xf3,
        0xfc, 0xf2, 0xe9, 0x02, 0x01, 0x04, 0xf0, 0x07, 0xec, 0xf1, 0x03, 0xf5,
        0xf8, 0xf7, 0x03, 0xca, 0x0b, 0x02, 0x0b, 0xeb, 0x14, 0x07, 0x03, 0xfb,
        0xec, 0xfb, 0xea, 0xe5, 0x08, 0xf1, 0x05, 0xeb, 0xe2, 0x02, 0xbc, 0xf7,
        0xe8, 0x0f, 0x0c, 0x10, 0x11, 0x0a, 0x29, 0xd5, 0xe5, 0xd9, 0x0b, 0xdb,
        0x10, 0xe5, 0xec, 0xfb, 0xeb, 0x09, 0xed, 0x0f, 0xeb, 0xec, 0x05, 0xf8,
        0xfd, 0xe2, 0x18, 0x09, 0x14, 0xf2, 0xfc, 0xe5, 0x0a, 0x04, 0x01, 0xf0,
        0xed, 0xf6, 0xbb, 0xeb, 0xeb, 0xda, 0x03, 0x08, 0xef, 0xc1, 0xf8, 0x22,
        0x01, 0xd4, 0xf9, 0x06, 0xd7, 0xc0, 0xe0, 0xea, 0x16, 0xfb, 0xd2, 0x04,
        0x0f, 0x14, 0xd9, 0xca, 0x0b, 0xf6, 0xf6, 0xf1, 0x02, 0xfb, 0x09, 0x0d,
        0xcf, 0xef, 0xfe, 0xf2, 0x13, 0xfb, 0xe8, 0x06, 0x16, 0x33, 0x0d, 0xfb,
        0xe2, 0xd3, 0xcf, 0x1f, 0x22, 0xe2, 0x0c, 0x0b, 0xfc, 0xe8, 0xdd, 0x0d,
        0x0e, 0x09, 0x13, 0xd3, 0xf3, 0x38, 0xef, 0xfb, 0x09, 0x04, 0xd9, 0xf0,
        0xfa, 0x0e, 0xfd, 0x04, 0xf6, 0xe5, 0x0c, 0xfd, 0xd8, 0xb8, 0x14, 0x07,
        0xdd, 0xf5, 0xd3, 0x07, 0xdd, 0xf1, 0xfb, 0xe5, 0xef, 0x02, 0x05, 0x21,
        0xf8, 0x08, 0xc1, 0xf8, 0x05, 0xf0, 0xef, 0x00, 0x0f, 0x08, 0xee, 0x24,
        0xcc, 0xe6, 0xf8, 0xea, 0x11, 0xf8, 0x03, 0xf9, 0x05, 0x02, 0x0e, 0x18,
        0xf2, 0xfc, 0x0e, 0xef, 0xf0, 0xe0, 0xff, 0xe1, 0xe4, 0xf8, 0xf3, 0x02,
        0xdf, 0xe7, 0xec, 0xfe, 0xfe, 0x07, 0xfa, 0x03, 0x05, 0x0e, 0xff, 0xdd,
        0xe8, 0xd8, 0x00, 0x02, 0xfb, 0xf1, 0xf4, 0xd3, 0xf2, 0xfc, 0xd3, 0x0a,
        0xef, 0xfd, 0x05, 0xcf, 0xe3, 0x03, 0xc1, 0xd0, 0xe0, 0x03, 0xdb, 0x15,
        0xe8, 0xd5, 0xee, 0xe1, 0xcb, 0x08, 0xdb, 0x17, 0xac, 0xd2, 0x0f, 0xf8,
        0x04, 0xea, 0xf8, 0xd3, 0xf8, 0x02, 0xf4, 0xfb, 0xf8, 0x01, 0xf6, 0x00,
        0xf6, 0x01, 0xf3, 0xfa, 0xf1, 0xef, 0xfe, 0x0c, 0xfe, 0xfa, 0xfc, 0x03,
        0xee, 0x0b, 0xf4, 0xfa, 0xfe, 0xfd, 0xf5, 0x06, 0x0f, 0x06, 0xfb, 0xfd,
        0xed, 0xf9, 0xf9, 0xec, 0xef, 0xf7, 0xf9, 0xf1, 0xff, 0x08, 0xf9, 0xf1,
        0xf0, 0xf9, 0x05, 0xfa, 0x03, 0xf8, 0xec, 0xfb, 0xf5, 0x0b, 0xff, 0xf9,
        0x03, 0xf6, 0xed, 0xf8, 0x00, 0x03, 0x00, 0xf5, 0xf2, 0xed, 0x02, 0xf8,
        0xff, 0x00, 0x02, 0xea, 0xf4, 0xf8, 0xf1, 0xe8, 0xee, 0xf8, 0xfa, 0xf1,
        0xfd, 0xf8, 0x01, 0xff, 0x00, 0xf9, 0xf9, 0xff, 0xf0, 0x06, 0xf3, 0xf8,
        0xfe, 0xf4, 0xfe, 0xfa, 0xff, 0x14, 0xef, 0x06, 0x06, 0xef, 0x11, 0xf9,
        0xfa, 0x02, 0x01, 0x06, 0xcf, 0x0a, 0x13, 0xf0, 0x06, 0xf0, 0xe7, 0x0b,
        0xf0, 0xfa, 0xea, 0xfb, 0xd6, 0xd4, 0x00, 0xe8, 0x06, 0x07, 0xfc, 0xe8,
        0xfc, 0x05, 0x0f, 0xef, 0xf3, 0xe3, 0x00, 0x07, 0xea, 0xfe, 0x0e, 0x11,
        0xd3, 0xf9, 0x17, 0x15, 0x07, 0xf8, 0xe7, 0x04, 0x05, 0x14, 0x04, 0xf1,
        0x00, 0xe7, 0x00, 0x0a, 0x1a, 0xf8, 0xf2, 0xe9, 0x0a, 0x03, 0x07, 0xe7,
        0xfb, 0xea, 0xe4, 0x04, 0xff, 0xf1, 0x03, 0xec, 0xcd, 0xff, 0x06, 0x1e,
        0x1d, 0xf4, 0x14, 0x1a, 0xfd, 0x23, 0x23, 0xf1, 0x09, 0xf7, 0xfd, 0xe3,
        0xef, 0xe1, 0x0a, 0xef, 0x0f, 0x0b, 0x05, 0x21, 0xdb, 0xda, 0xf6, 0x13,
        0x04, 0xff, 0x17, 0xf7, 0x16, 0x0a, 0xf6, 0x29, 0xdc, 0xe0, 0xee, 0x0d,
        0xdd, 0x05, 0x00, 0x0d, 0xdc, 0x17, 0xf1, 0x1f, 0x04, 0xf5, 0xe8, 0xf3,
        0xf9, 0xe5, 0xfc, 0xed, 0xbe, 0xe6, 0x05, 0x01, 0xdc, 0x02, 0xfb, 0xf4,
        0xfd, 0x0c, 0xe9, 0x12, 0x07, 0xed, 0xf5, 0xef, 0xde, 0x18, 0xea, 0x06,
        0xca, 0x0f, 0xef, 0x00, 0x1f, 0xe6, 0xf4, 0xe0, 0xff, 0xff, 0xec, 0x15,
        0xee, 0xe0, 0xef, 0x00, 0xf5, 0x01, 0x09, 0x1c, 0xf1, 0x01, 0x11, 0xf9,
        0xff, 0xe7, 0xef, 0xee, 0xf4, 0x1b, 0x03, 0x06, 0xcc, 0xef, 0xe5, 0x29,
        0xe9, 0xdb, 0xd7, 0xf1, 0xe7, 0x00, 0x10, 0xf0, 0xdd, 0xec, 0xf2, 0x0e,
        0x02, 0xfe, 0xf9, 0x1a, 0xdc, 0x01, 0x00, 0xdd, 0x01, 0xe2, 0xe9, 0xf9,
        0x01, 0x08, 0x04, 0x03, 0xf9, 0xf3, 0xcb, 0x10, 0xf3, 0xd7, 0xbc, 0x08,
        0xe6, 0xe1, 0x14, 0xf1, 0xed, 0xe6, 0xd6, 0x21, 0xea, 0x06, 0xf1, 0x16,
        0xfb, 0xfe, 0xe7, 0xe2, 0x0d, 0x16, 0xe6, 0xec, 0x12, 0xc9, 0xf9, 0xe3,
        0xfe, 0xf6, 0xe8, 0x07, 0xf0, 0xea, 0xfa, 0x1b, 0xe7, 0x00, 0xf1, 0xe9,
        0xd5, 0x07, 0xf4, 0x0c, 0x0d, 0x03, 0xff, 0xdd, 0xf0, 0xf7, 0xef, 0xf9,
        0x04, 0x09, 0x00, 0xf0, 0xfe, 0x18, 0x04, 0xf8, 0x08, 0x22, 0xf9, 0xe9,
        0xf5, 0xda, 0xe1, 0x00, 0x1c, 0x19, 0x08, 0xf2, 0x05, 0xf3, 0x0a, 0xf2,
        0x20, 0x1e, 0xca, 0xfe, 0x1f, 0x20, 0x24, 0x08, 0x0a, 0x05, 0x06, 0xfb,
        0x07, 0xb8, 0x0b, 0xf0, 0x1a, 0x28, 0x1a, 0x0e, 0xd8, 0x1a, 0xed, 0x04,
        0xcd, 0x08, 0xf5, 0xee, 0xda, 0xdb, 0xfb, 0xf7, 0xdc, 0xf7, 0xb1, 0xf6,
        0xf1, 0xfa, 0xe1, 0x00, 0xf9, 0xf2, 0xeb, 0xe3, 0x06, 0xe2, 0x0a, 0xf5,
        0x00, 0x02, 0xeb, 0xe9, 0x14, 0x04, 0x0b, 0xef, 0xf5, 0xf6, 0x2f, 0xed,
        0xfd, 0xdc, 0x15, 0x2d, 0xe5, 0xf1, 0xbd, 0xff, 0xe8, 0x25, 0xd3, 0x1c,
        0x10, 0xce, 0x1a, 0x02, 0x0f, 0xe0, 0x1a, 0x0e, 0x0d, 0xf4, 0xe3, 0xf6,
        0xfe, 0xe8, 0xea, 0xf8, 0x01, 0xfd, 0xf6, 0xff, 0xf4, 0x05, 0xe9, 0xea,
        0xf5, 0x0e, 0xf4, 0x06, 0xea, 0xf9, 0x0a, 0xef, 0x0d, 0xf2, 0x05, 0xfe,
        0x10, 0x0d, 0xfe, 0xe1, 0xee, 0xe5, 0xfc, 0x06, 0x0b, 0x0d, 0x00, 0xef,
        0xf6, 0x02, 0xfa, 0xf7, 0xf2, 0x0a, 0xfa, 0xf2, 0xec, 0x06, 0xfe, 0xf2,
        0xe3, 0xf2, 0x16, 0xec, 0x28, 0xfd, 0xeb, 0xff, 0xf6, 0x0d, 0x09, 0xe7,
        0xe2, 0xec, 0xf5, 0xf4, 0xfb, 0x01, 0xf9, 0x06, 0xfe, 0xf2, 0xf9, 0xf1,
        0xed, 0x04, 0xf2, 0xf7, 0xee, 0x15, 0x01, 0xfc, 0xe7, 0x05, 0xf1, 0x00,
        0x0a, 0xe5, 0xea, 0xfc, 0xf4, 0x1c, 0x01, 0xe6, 0xf4, 0x07, 0xe9, 0xf9,
        0x13, 0xff, 0xf8, 0xf9, 0xd6, 0xea, 0xfd, 0x03, 0xe2, 0x15, 0xf6, 0x12,
        0x10, 0xff, 0x02, 0x02, 0x09, 0x0d, 0xe3, 0x03, 0xee, 0xf5, 0xfd, 0xe0,
        0x0a, 0xe8, 0x16, 0x18, 0x0f, 0x10, 0xfa, 0xfd, 0x1e, 0xe1, 0xe5, 0x07,
        0xe4, 0xf1, 0xf9, 0x0e, 0xee, 0x02, 0xf0, 0xea, 0xf2, 0x0d, 0x0d, 0xff,
        0x06, 0xf8, 0x10, 0xf4, 0xf7, 0xf2, 0xfc, 0xe3, 0x00, 0x07, 0xf2, 0xe8,
        0x0d, 0xff, 0xf6, 0x12, 0x0f, 0xf8, 0x0a, 0x00, 0xcf, 0xf8, 0xf1, 0xf9,
        0xf5, 0x10, 0x18, 0xef, 0x09, 0xdb, 0x18, 0x1e, 0xf9, 0x13, 0xf3, 0x05,
        0xeb, 0x01, 0x00, 0xd8, 0xfe, 0xf5, 0x02, 0xed, 0xef, 0xe9, 0xfc, 0x0a,
        0x08, 0xea, 0x04, 0x00, 0xd8, 0xfb, 0x07, 0xf6, 0xbe, 0x0f, 0x0a, 0xee,
        0xf3, 0x1b, 0x1e, 0x02, 0x04, 0x1c, 0xdd, 0x13, 0x05, 0xd8, 0xd3, 0xdc,
        0x00, 0x25, 0x0b, 0x04, 0xdb, 0xfb, 0xe5, 0x00, 0x1b, 0xd4, 0xf8, 0xf9,
        0x02, 0x0f, 0xe7, 0x21, 0xfe, 0x0a, 0x0d, 0xe7, 0xfe, 0xf5, 0xfc, 0xd7,
        0x01, 0xf9, 0xe9, 0x07, 0x0a, 0xf2, 0xee, 0x05, 0x01, 0xdc, 0xe2, 0xe7,
        0xdd, 0xfc, 0xf1, 0xda, 0x0d, 0xce, 0x07, 0x05, 0xfb, 0xe3, 0x11, 0xf3,
        0xe8, 0xf9, 0x22, 0xe9, 0xdb, 0xde, 0x0d, 0xf5, 0xf3, 0x20, 0xf6, 0x29,
        0xf9, 0x10, 0xf1, 0xf6, 0x07, 0xf4, 0x28, 0x1a, 0xbd, 0xe7, 0x0b, 0x0f,
        0xfb, 0xfa, 0x12, 0xe9, 0xf8, 0x09, 0xfd, 0xf4, 0xe0, 0xf8, 0xda, 0xec,
        0xf7, 0xf1, 0x05, 0x0b, 0xf5, 0x2b, 0xea, 0x02, 0x0c, 0xfb, 0xf8, 0xee,
        0x04, 0x0c, 0x1d, 0xe7, 0xfd, 0xfc, 0xf2, 0x04, 0x2a, 0xec, 0xe9, 0x11,
        0xfa, 0x11, 0x07, 0xf9, 0x08, 0x0a, 0xff, 0x0b, 0xf8, 0xfd, 0x16, 0x0c,
        0xdb, 0x20, 0x17, 0x0c, 0x16, 0xee, 0x03, 0xf7, 0xe8, 0x23, 0x24, 0xea,
        0x05, 0xf8, 0xf9, 0x15, 0x28, 0xf1, 0xe3, 0x27, 0x1f, 0xea, 0xfd, 0x00,
        0x03, 0xdf, 0x02, 0x14, 0xfc, 0x29, 0x14, 0xc0, 0x03, 0x07, 0x0d, 0xea,
        0xfb, 0xdf, 0xed, 0x33, 0xe8, 0xe3, 0xe7, 0xeb, 0xec, 0x0d, 0xf4, 0xde,
        0xed, 0x06, 0x04, 0xf3, 0xbb, 0xe2, 0xd1, 0xfb, 0xdd, 0xcf, 0xec, 0xe3,
        0x0d, 0xfa, 0x24, 0xf0, 0x19, 0xf1, 0xc5, 0xe4, 0xea, 0x08, 0xd8, 0xb1,
        0xcb, 0x2f, 0xf9, 0xeb, 0x02, 0xfe, 0x17, 0xf9, 0x09, 0xc6, 0x35, 0x1a,
        0xea, 0xea, 0x1b, 0xeb, 0x07, 0x03, 0xf7, 0x04, 0xed, 0xe9, 0xf9, 0x14,
        0xfc, 0x08, 0xfd, 0x12, 0xfc, 0x09, 0xf2, 0xf4, 0x1f, 0xf9, 0x1d, 0xec,
        0x08, 0x0a, 0xf2, 0x05, 0xe3, 0xec, 0xf1, 0x22, 0xf0, 0x12, 0x09, 0x0b,
        0x09, 0x00, 0x20, 0x0f, 0xee, 0x14, 0xed, 0xef, 0x15, 0x14, 0x22, 0x33,
        0x21, 0x12, 0x0b, 0xf2, 0x01, 0xe3, 0x26, 0xfd, 0x03, 0xfa, 0x19, 0x19,
        0xfc, 0xff, 0x14, 0xf0, 0xcb, 0xef, 0x05, 0x10, 0xce, 0xe6, 0xe6, 0xd4,
        0xfe, 0xfe, 0x3a, 0x11, 0xf5, 0xf0, 0xea, 0x00, 0xfc, 0xe5, 0xef, 0xdd,
        0xef, 0x23, 0xcd, 0xd2, 0xdf, 0xe7, 0xf5, 0x1b, 0x1a, 0xd2, 0x12, 0x07,
        0xed, 0xff, 0xf5, 0x0f, 0xff, 0xe9, 0xfe, 0x05, 0xc9, 0x0b, 0xfe, 0xe1,
        0xf2, 0xf4, 0xfd, 0xfc, 0x0f, 0x05, 0x19, 0xf2, 0xfe, 0xfe, 0xe6, 0xf8,
        0xd0, 0xdd, 0x0d, 0x0b, 0xce, 0x03, 0xff, 0x0d, 0xf8, 0xd5, 0xff, 0x09,
        0xf7, 0xed, 0x12, 0xe6, 0xc3, 0x1b, 0xff, 0xdf, 0x00, 0x0c, 0x04, 0x1f,
        0xd4, 0x10, 0x1b, 0xd1, 0x00, 0xf3, 0xff, 0x04, 0xd4, 0xd0, 0x12, 0x09,
        0x00, 0xed, 0x0b, 0xe0, 0x09, 0xc8, 0x0d, 0xfe, 0x03, 0x0e, 0x17, 0xec,
        0xf6, 0xd5, 0xce, 0xdb, 0xf0, 0x0c, 0xd6, 0x20, 0xfd, 0x06, 0x22, 0x0c,
        0xff, 0xc4, 0x04, 0x0b, 0x11, 0x13, 0xfb, 0xf8, 0xf8, 0xf1, 0xdf, 0xe5,
        0xf4, 0xc5, 0xfd, 0xe6, 0xf9, 0xeb, 0xf4, 0xd8, 0xdd, 0xeb, 0xc5, 0xf3,
        0xf8, 0x16, 0xec, 0x04, 0xca, 0xe2, 0xdc, 0xea, 0x05, 0xac, 0x11, 0xfe,
        0x08, 0xf3, 0xf4, 0x09, 0xec, 0xea, 0xec, 0xe5, 0xe2, 0x1f, 0x09, 0x03,
        0x06, 0xf2, 0x21, 0x10, 0xf6, 0x13, 0xfb, 0xfe, 0x13, 0x23, 0x16, 0x28,
        0x01, 0x1a, 0x15, 0xf4, 0x10, 0xe4, 0x03, 0x07, 0xfe, 0xee, 0x0b, 0x05,
        0xea, 0xf8, 0x28, 0xe9, 0xb2, 0xe8, 0x0c, 0xeb, 0xec, 0xf6, 0x03, 0xdc,
        0xff, 0x06, 0xff, 0x0c, 0xde, 0x37, 0xd7, 0x1e, 0xf8, 0xe3, 0xff, 0xe8,
        0x09, 0x07, 0x24, 0x0d, 0x07, 0xf0, 0xed, 0x22, 0xe3, 0xd1, 0xb5, 0x09,
        0xfa, 0xe4, 0x05, 0xee, 0xee, 0x07, 0xea, 0x04, 0x00, 0x0f, 0xfd, 0xe3,
        0xf1, 0x09, 0xda, 0xf7, 0xf9, 0xf8, 0xfa, 0x04, 0xf6, 0x0c, 0xff, 0xc8,
        0x13, 0x07, 0xd7, 0xec, 0xf0, 0xdc, 0xd7, 0x1e, 0x2e, 0xeb, 0xf0, 0x05,
        0x0e, 0xd6, 0x1a, 0xff, 0xdd, 0xce, 0xe0, 0xbb, 0xea, 0xee, 0xe4, 0x04,
        0xfa, 0x07, 0xff, 0x23, 0xd5, 0xf8, 0x01, 0xfb, 0xef, 0x03, 0x11, 0xd0,
        0xdf, 0x10, 0xda, 0xdf, 0xb6, 0xd5, 0x0c, 0x13, 0xe1, 0xc4, 0xea, 0xe1,
        0x11, 0xfd, 0x01, 0xfa, 0xfa, 0xff, 0xfc, 0x04, 0xe5, 0xe0, 0xfd, 0xe6,
        0x00, 0x06, 0xef, 0xeb, 0x04, 0x01, 0xe2, 0x11, 0xc3, 0xd8, 0xee, 0x13,
        0xd1, 0xe3, 0x06, 0xe5, 0xdb, 0xce, 0x06, 0xe3, 0x05, 0xe1, 0xf4, 0xf0,
        0xff, 0x0c, 0xd8, 0x2a, 0xf8, 0x0a, 0xfe, 0xe1, 0xf2, 0x2a, 0xf4, 0x01,
        0xd7, 0x05, 0x0e, 0x19, 0xf2, 0x0c, 0x18, 0xe6, 0xeb, 0x00, 0xf3, 0x19,
        0xde, 0xde, 0x05, 0x07, 0x07, 0x0c, 0x12, 0x0f, 0xf7, 0x0d, 0xda, 0xf8,
        0xf9, 0xf0, 0x0d, 0xdb, 0xf2, 0x2c, 0x0d, 0xf8, 0x0f, 0x0d, 0xf5, 0x0b,
        0xff, 0xd1, 0xfa, 0x14, 0x10, 0x06, 0xdb, 0xf7, 0xe9, 0xbe, 0xdc, 0xea,
        0xdc, 0xf9, 0xb4, 0xe5, 0x02, 0xde, 0xf9, 0xe5, 0xd2, 0xf5, 0xe3, 0xfa,
        0xdf, 0xe1, 0xf2, 0xd3, 0xff, 0xe8, 0xe9, 0xd4, 0xff, 0x0e, 0xf0, 0xf1,
        0x04, 0xd7, 0x0a, 0x1a, 0xe9, 0xf6, 0xf9, 0x0a, 0x19, 0xfc, 0x0d, 0x1d,
        0xee, 0x02, 0xfe, 0xf7, 0xf0, 0x12, 0x11, 0xf4, 0xf5, 0x24, 0xe1, 0xeb,
        0x06, 0x0f, 0x11, 0x03, 0xeb, 0xf7, 0x17, 0x1a, 0xde, 0xe5, 0xfa, 0x01,
        0xf3, 0x0c, 0xfe, 0xd4, 0x0a, 0x08, 0xdd, 0x0d, 0xec, 0x06, 0x20, 0x11,
        0x10, 0x21, 0xfc, 0xda, 0xf7, 0xdf, 0x00, 0x03, 0x0c, 0xf5, 0x08, 0x05,
        0xf5, 0xff, 0xee, 0x10, 0xf9, 0xfe, 0x0d, 0x00, 0x09, 0xfa, 0xe6, 0xde,
        0xf4, 0x10, 0x01, 0xea, 0xdf, 0xf0, 0x02, 0xee, 0x13, 0xc9, 0x08, 0x00,
        0xf8, 0xf3, 0xd6, 0x0e, 0x05, 0x07, 0xca, 0xeb, 0x1e, 0x00, 0xd9, 0xd2,
        0xf9, 0xf1, 0x07, 0xfc, 0x09, 0x0f, 0xf9, 0xe6, 0xbe, 0xf7, 0xd5, 0xe9,
        0xfa, 0xd8, 0xdb, 0x04, 0xe8, 0xf2, 0x09, 0xd2, 0x06, 0xfe, 0xef, 0x05,
        0xd1, 0xce, 0xe5, 0xf9, 0x0b, 0x09, 0xf8, 0xe7, 0x02, 0xfe, 0x01, 0xdc,
        0xf4, 0x07, 0xf5, 0xff, 0xec, 0xe8, 0xd0, 0xfe, 0xfb, 0xf1, 0xfd, 0x07,
        0xf9, 0x0e, 0xf5, 0xdd, 0x0a, 0xe4, 0xdb, 0x0f, 0xed, 0xe5, 0xd9, 0xe8,
        0xdd, 0xdc, 0xda, 0xf2, 0xfb, 0xfe, 0xed, 0x06, 0xf3, 0x0b, 0x05, 0xf8,
        0x08, 0x1e, 0x0c, 0x03, 0xf7, 0xfd, 0x1a, 0xf3, 0x0c, 0xfa, 0xfa, 0xf1,
        0x0a, 0xf7, 0x00, 0xfe, 0xef, 0x00, 0x03, 0xf4, 0x08, 0xfa, 0x0c, 0x03,
        0xf7, 0xf1, 0xe1, 0xf5, 0xe4, 0x07, 0xfd, 0xf9, 0xfd, 0xfb, 0x11, 0xfa,
        0xf3, 0xfb, 0xf2, 0xe9, 0xff, 0xfa, 0xf5, 0xfb, 0x01, 0x01, 0xf9, 0xe9,
        0x06, 0xf2, 0xfa, 0xf4, 0x0f, 0xf2, 0xfb, 0xfc, 0xed, 0xf4, 0xe4, 0xf6,
        0xe4, 0x00, 0x08, 0xf0, 0xf5, 0xf6, 0x08, 0xf9, 0xfc, 0xf8, 0xf8, 0xf5,
        0xfb, 0xf4, 0xf8, 0xfd, 0xfc, 0xfb, 0xec, 0xe8, 0xed, 0xf9, 0xfe, 0xf8,
        0xfe, 0xfe, 0xf9, 0xf0, 0xf9, 0x51, 0xf3, 0xc6, 0xf3, 0xf4, 0xfd, 0x02,
        0xe1, 0xe3, 0xbc, 0xd4, 0xd9, 0x06, 0x54, 0x12, 0x21, 0xe0, 0xf8, 0x2a,
        0xd3, 0xbc, 0xef, 0xea, 0xfb, 0xe9, 0xee, 0xf5, 0xf3, 0x18, 0xc2, 0xe2,
        0x0a, 0x30, 0x08, 0xff, 0xff, 0x1a, 0xf7, 0x1b, 0x27, 0x00, 0x14, 0x01,
        0xec, 0xf3, 0x10, 0x18, 0x25, 0xf8, 0x0c, 0x28, 0xf4, 0xe7, 0x13, 0xe3,
        0x0e, 0x1a, 0x01, 0x12, 0x0a, 0x0f, 0xf4, 0x01, 0xf8, 0xf7, 0x26, 0xfb,
        0xed, 0xe9, 0xd7, 0x08, 0xf0, 0xe4, 0xf5, 0x29, 0xf0, 0xef, 0x00, 0x10,
        0x0f, 0xc8, 0x11, 0x10, 0x0b, 0xc9, 0x2a, 0xe8, 0x15, 0xf1, 0xd9, 0x17,
        0xfa, 0xf6, 0xa9, 0x0d, 0x0c, 0xfa, 0x04, 0xeb, 0x00, 0xfa, 0xfe, 0xea,
        0xe2, 0x20, 0xc2, 0xd6, 0xcb, 0x0c, 0xf6, 0x13, 0x17, 0xec, 0x1d, 0x0d,
        0xea, 0xef, 0x15, 0x00, 0x04, 0xfb, 0x09, 0x01, 0x18, 0x02, 0x06, 0xe6,
        0xf3, 0x09, 0x0e, 0x10, 0xee, 0x08, 0xe7, 0x05, 0xeb, 0xfc, 0xf8, 0xf7,
        0xf4, 0xf1, 0xf9, 0xe0, 0x04, 0x23, 0x05, 0x10, 0x08, 0xf3, 0x10, 0xe7,
        0x17, 0x03, 0xf3, 0x25, 0x21, 0x01, 0x12, 0x03, 0xe9, 0x00, 0xeb, 0xf3,
        0xe2, 0xe6, 0xf7, 0x00, 0xe2, 0x33, 0x15, 0xfd, 0xe2, 0xf2, 0x03, 0x05,
        0xed, 0xf1, 0xf8, 0xf4, 0xf6, 0x11, 0xfc, 0xf9, 0xff, 0xe1, 0x03, 0x0d,
        0x0b, 0xee, 0xf3, 0xdf, 0x15, 0x11, 0xf2, 0x05, 0x11, 0xd4, 0xf7, 0x1d,
        0xef, 0xd4, 0xed, 0xd3, 0xfc, 0xd4, 0x2a, 0xea, 0xf4, 0xef, 0x17, 0x24,
        0xf2, 0xbf, 0xf1, 0x11, 0xf3, 0x07, 0xdb, 0xec, 0xd9, 0x25, 0xdb, 0x0c,
        0x0d, 0xe0, 0xe3, 0xd2, 0xe8, 0xf2, 0x06, 0xfc, 0xf6, 0xf6, 0xeb, 0xf8,
        0x1b, 0xd4, 0xdb, 0xf6, 0x09, 0x00, 0xe9, 0xed, 0xeb, 0xd3, 0xf0, 0x02,
        0xfa, 0xfa, 0xfd, 0xc9, 0x01, 0xf2, 0xd3, 0xed, 0xdc, 0xfd, 0x05, 0xf2,
        0xef, 0x09, 0xd5, 0xfd, 0xfc, 0xef, 0xfe, 0x25, 0x05, 0x14, 0xe3, 0xf8,
        0xde, 0xf0, 0xdd, 0xf0, 0x22, 0xe2, 0x0b, 0xe8, 0x0c, 0x08, 0xd9, 0x0a,
        0x28, 0xfd, 0xf2, 0x07, 0x01, 0xf6, 0x00, 0x00, 0xfe, 0xfa, 0xf8, 0xff,
        0x04, 0x02, 0xfc, 0xfd, 0xf7, 0x05, 0x01, 0xff, 0x02, 0xfd, 0xf8, 0xf6,
        0xf9, 0x00, 0xff, 0xfb, 0xfe, 0xfd, 0xfb, 0xf3, 0xfa, 0x00, 0x00, 0x00,
        0x04, 0x01, 0xf9, 0xfb, 0xf6, 0xf9, 0x01, 0xfd, 0x03, 0xff, 0x02, 0xf9,
        0xfc, 0x01, 0x06, 0xfb, 0x04, 0xfa, 0x00, 0xf8, 0x02, 0x05, 0x06, 0xf9,
        0x03, 0xfa, 0x02, 0xfa, 0x00, 0x03, 0xfe, 0xf6, 0xf4, 0xfc, 0xf8, 0xff,
